{
  "version": "1.0",
  "truncation": null,
  "padding": null,
  "added_tokens": [
    {
      "id": 0,
      "content": "<PAD>",
      "single_word": false,
      "lstrip": false,
      "rstrip": false,
      "normalized": false,
      "special": true
    },
    {
      "id": 1,
      "content": "<BOS>",
      "single_word": false,
      "lstrip": false,
      "rstrip": false,
      "normalized": false,
      "special": true
    },
    {
      "id": 2,
      "content": "<EOS>",
      "single_word": false,
      "lstrip": false,
      "rstrip": false,
      "normalized": false,
      "special": true
    }
  ],
  "normalizer": null,
  "pre_tokenizer": {
    "type": "ByteLevel",
    "add_prefix_space": true,
    "trim_offsets": true,
    "use_regex": true
  },
  "post_processor": null,
  "decoder": {
    "type": "ByteLevel",
    "add_prefix_space": true,
    "trim_offsets": true,
    "use_regex": true
  },
  "model": {
    "type": "BPE",
    "dropout": null,
    "unk_token": null,
    "continuing_subword_prefix": null,
    "end_of_word_suffix": null,
    "fuse_unk": false,
    "byte_fallback": false,
    "ignore_merges": false,
    "vocab": {
      "<PAD>": 0,
      "<BOS>": 1,
      "<EOS>": 2,
      "!": 3,
      "\"": 4,
      "#": 5,
      "$": 6,
      "%": 7,
      "&": 8,
      "'": 9,
      "(": 10,
      ")": 11,
      "*": 12,
      "+": 13,
      ",": 14,
      "-": 15,
      ".": 16,
      "/": 17,
      "0": 18,
      "1": 19,
      "2": 20,
      "3": 21,
      "4": 22,
      "5": 23,
      "6": 24,
      "7": 25,
      "8": 26,
      "9": 27,
      ":": 28,
      ";": 29,
      "<": 30,
      "=": 31,
      ">": 32,
      "?": 33,
      "@": 34,
      "A": 35,
      "B": 36,
      "C": 37,
      "D": 38,
      "E": 39,
      "F": 40,
      "G": 41,
      "H": 42,
      "I": 43,
      "J": 44,
      "K": 45,
      "L": 46,
      "M": 47,
      "N": 48,
      "O": 49,
      "P": 50,
      "Q": 51,
      "R": 52,
      "S": 53,
      "T": 54,
      "U": 55,
      "V": 56,
      "W": 57,
      "X": 58,
      "Y": 59,
      "Z": 60,
      "[": 61,
      "\\": 62,
      "]": 63,
      "^": 64,
      "_": 65,
      "`": 66,
      "a": 67,
      "b": 68,
      "c": 69,
      "d": 70,
      "e": 71,
      "f": 72,
      "g": 73,
      "h": 74,
      "i": 75,
      "j": 76,
      "k": 77,
      "l": 78,
      "m": 79,
      "n": 80,
      "o": 81,
      "p": 82,
      "q": 83,
      "r": 84,
      "s": 85,
      "t": 86,
      "u": 87,
      "v": 88,
      "w": 89,
      "x": 90,
      "y": 91,
      "z": 92,
      "{": 93,
      "|": 94,
      "}": 95,
      "~": 96,
      "¡": 97,
      "¢": 98,
      "£": 99,
      "¤": 100,
      "¥": 101,
      "¦": 102,
      "§": 103,
      "¨": 104,
      "©": 105,
      "ª": 106,
      "«": 107,
      "¬": 108,
      "®": 109,
      "¯": 110,
      "°": 111,
      "±": 112,
      "²": 113,
      "³": 114,
      "´": 115,
      "µ": 116,
      "¶": 117,
      "·": 118,
      "¸": 119,
      "¹": 120,
      "º": 121,
      "»": 122,
      "¼": 123,
      "½": 124,
      "¾": 125,
      "¿": 126,
      "À": 127,
      "Á": 128,
      "Â": 129,
      "Ã": 130,
      "Ä": 131,
      "Å": 132,
      "Æ": 133,
      "Ç": 134,
      "È": 135,
      "É": 136,
      "Ê": 137,
      "Ë": 138,
      "Ì": 139,
      "Í": 140,
      "Î": 141,
      "Ï": 142,
      "Ð": 143,
      "Ñ": 144,
      "Ò": 145,
      "Ó": 146,
      "Ô": 147,
      "Õ": 148,
      "Ö": 149,
      "×": 150,
      "Ø": 151,
      "Ù": 152,
      "Ú": 153,
      "Û": 154,
      "Ü": 155,
      "Ý": 156,
      "Þ": 157,
      "ß": 158,
      "à": 159,
      "á": 160,
      "â": 161,
      "ã": 162,
      "ä": 163,
      "å": 164,
      "æ": 165,
      "ç": 166,
      "è": 167,
      "é": 168,
      "ê": 169,
      "ë": 170,
      "ì": 171,
      "í": 172,
      "î": 173,
      "ï": 174,
      "ð": 175,
      "ñ": 176,
      "ò": 177,
      "ó": 178,
      "ô": 179,
      "õ": 180,
      "ö": 181,
      "÷": 182,
      "ø": 183,
      "ù": 184,
      "ú": 185,
      "û": 186,
      "ü": 187,
      "ý": 188,
      "þ": 189,
      "ÿ": 190,
      "Ā": 191,
      "ā": 192,
      "Ă": 193,
      "ă": 194,
      "Ą": 195,
      "ą": 196,
      "Ć": 197,
      "ć": 198,
      "Ĉ": 199,
      "ĉ": 200,
      "Ċ": 201,
      "ċ": 202,
      "Č": 203,
      "č": 204,
      "Ď": 205,
      "ď": 206,
      "Đ": 207,
      "đ": 208,
      "Ē": 209,
      "ē": 210,
      "Ĕ": 211,
      "ĕ": 212,
      "Ė": 213,
      "ė": 214,
      "Ę": 215,
      "ę": 216,
      "Ě": 217,
      "ě": 218,
      "Ĝ": 219,
      "ĝ": 220,
      "Ğ": 221,
      "ğ": 222,
      "Ġ": 223,
      "ġ": 224,
      "Ģ": 225,
      "ģ": 226,
      "Ĥ": 227,
      "ĥ": 228,
      "Ħ": 229,
      "ħ": 230,
      "Ĩ": 231,
      "ĩ": 232,
      "Ī": 233,
      "ī": 234,
      "Ĭ": 235,
      "ĭ": 236,
      "Į": 237,
      "į": 238,
      "İ": 239,
      "ı": 240,
      "Ĳ": 241,
      "ĳ": 242,
      "Ĵ": 243,
      "ĵ": 244,
      "Ķ": 245,
      "ķ": 246,
      "ĸ": 247,
      "Ĺ": 248,
      "ĺ": 249,
      "Ļ": 250,
      "ļ": 251,
      "Ľ": 252,
      "ľ": 253,
      "Ŀ": 254,
      "ŀ": 255,
      "Ł": 256,
      "ł": 257,
      "Ń": 258,
      "EN": 259,
      "END": 260,
      "er": 261,
      "Ġ[": 262,
      "SE": 263,
      "SEG": 264,
      "in": 265,
      "Ġa": 266,
      "st": 267,
      "<|": 268,
      "|>": 269,
      "on": 270,
      ".[": 271,
      "Ġt": 272,
      "or": 273,
      "ST": 274,
      "RO": 275,
      "AR": 276,
      "ROL": 277,
      "STAR": 278,
      "START": 279,
      "ROLE": 280,
      "en": 281,
      "][": 282,
      "le": 283,
      "an": 284,
      "Ġc": 285,
      "Ġ<|": 286,
      "čĊ": 287,
      "Ġs": 288,
      "te": 289,
      "re": 290,
      "as": 291,
      "ro": 292,
      "he": 293,
      "us": 294,
      "ce": 295,
      "ra": 296,
      "role": 297,
      "]<|": 298,
      "Ġan": 299,
      "RA": 300,
      "ist": 301,
      "al": 302,
      "Ġp": 303,
      "ers": 304,
      "OC": 305,
      "RAG": 306,
      "DOC": 307,
      "Ġin": 308,
      "Ġl": 309,
      "ou": 310,
      "Ġthe": 311,
      "Ġre": 312,
      "ant": 313,
      "id": 314,
      "ing": 315,
      "ma": 316,
      "ion": 317,
      "Ġf": 318,
      "is": 319,
      "ass": 320,
      "user": 321,
      "int": 322,
      "istant": 323,
      "assistant": 324,
      "AL": 325,
      "OB": 326,
      "GL": 327,
      "OBAL": 328,
      "GLOBAL": 329,
      "Ġw": 330,
      "om": 331,
      "ĠčĊ": 332,
      "at": 333,
      "con": 334,
      "it": 335,
      "Ġn": 336,
      "es": 337,
      "Ġand": 338,
      "la": 339,
      "ord": 340,
      "Ġd": 341,
      "our": 342,
      "ource": 343,
      "ed": 344,
      "qu": 345,
      "stra": 346,
      "straint": 347,
      "constraint": 348,
      "ite": 349,
      "Ġv": 350,
      "Ġb": 351,
      "ct": 352,
      "Ġcu": 353,
      "source": 354,
      "ort": 355,
      "stom": 356,
      "Ġqu": 357,
      "ic": 358,
      "me": 359,
      "'s": 360,
      "Ġe": 361,
      "ent": 362,
      "Ġth": 363,
      "ere": 364,
      "ar": 365,
      "ig": 366,
      "Ġcustom": 367,
      "Here": 368,
      "ot": 369,
      "ol": 370,
      "Ġto": 371,
      "um": 372,
      "Ġis": 373,
      "ue": 374,
      "da": 375,
      "et": 376,
      "de": 377,
      "Ġlo": 378,
      "ction": 379,
      "oc": 380,
      "orders": 381,
      "iz": 382,
      "ge": 383,
      "xt": 384,
      "ple": 385,
      "ĠT": 386,
      "ence": 387,
      "ate": 388,
      "fer": 389,
      "ĠO": 390,
      "ly": 391,
      "of": 392,
      "ery": 393,
      "un": 394,
      "ch": 395,
      "Ġfor": 396,
      "Ġm": 397,
      "ĠL": 398,
      "Ġpol": 399,
      "ven": 400,
      "Ġreg": 401,
      "ase": 402,
      "day": 403,
      "Ġof": 404,
      "ith": 405,
      "igh": 406,
      "Ġwith": 407,
      "Ġst": 408,
      "Ġthis": 409,
      "ks": 410,
      "ĠA": 411,
      "hi": 412,
      "Ġcustomers": 413,
      "Ġorders": 414,
      "dex": 415,
      "mar": 416,
      "Ġus": 417,
      "il": 418,
      "Ġsc": 419,
      "Ġcon": 420,
      "Ġlist": 421,
      "Ġpa": 422,
      "lo": 423,
      "Ġdoc": 424,
      "mple": 425,
      "Ġon": 426,
      "ep": 427,
      "ĠP": 428,
      "ining": 429,
      "ter": 430,
      "\":": 431,
      "ation": 432,
      "oint": 433,
      "se": 434,
      "Ġen": 435,
      "ity": 436,
      "mail": 437,
      "Ġemail": 438,
      "Ġ3": 439,
      "hema": 440,
      "ap": 441,
      "Ġlog": 442,
      "Ġschema": 443,
      "ran": 444,
      "ference": 445,
      "ĠQ": 446,
      "nal": 447,
      "Ġde": 448,
      "ĠThe": 449,
      "venue": 450,
      "Ġcustomer": 451,
      "eep": 452,
      "Ġsort": 453,
      "Ġquery": 454,
      "inate": 455,
      "text": 456,
      "Ġcla": 457,
      "point": 458,
      "context": 459,
      "Ġtra": 460,
      "Ġsh": 461,
      "ft": 462,
      "raft": 463,
      "Ġpolite": 464,
      "alt": 465,
      "Ġnot": 466,
      "Ġ1": 467,
      "enalt": 468,
      "Ġpenalt": 469,
      "Ġpenalty": 470,
      "case": 471,
      "Ġwor": 472,
      "op": 473,
      "Ġworst": 474,
      "ummar": 475,
      "ver": 476,
      "lan": 477,
      "ama": 478,
      "Ġany": 479,
      "rite": 480,
      "Ġas": 481,
      "Ġindex": 482,
      "ies": 483,
      "Ex": 484,
      "ia": 485,
      "hat": 486,
      "wer": 487,
      "yama": 488,
      "ĠK": 489,
      "ashi": 490,
      "ashiyama": 491,
      "Ġvia": 492,
      "yot": 493,
      "ĠKyot": 494,
      "ĠKyoto": 495,
      "Ġme": 496,
      "unction": 497,
      "ĠR": 498,
      "Ġfunction": 499,
      "Ġla": 500,
      "Ġval": 501,
      "ror": 502,
      "Ġanom": 503,
      "Ġanomal": 504,
      "Ġvalid": 505,
      "erge": 506,
      "Ġquic": 507,
      "ksort": 508,
      "Ġquicksort": 509,
      "ory": 510,
      "mory": 511,
      "ask": 512,
      "memory": 513,
      "task": 514,
      "erson": 515,
      "ersona": 516,
      "persona": 517,
      "Ġ2": 518,
      ",\"": 519,
      "ĠRe": 520,
      "ted": 521,
      "Ġrep": 522,
      "val": 523,
      "Ġj": 524,
      "Ġ4": 525,
      "value": 526,
      "Ġjo": 527,
      "ample": 528,
      "02": 529,
      "ization": 530,
      "Ġcont": 531,
      "if": 532,
      "md": 533,
      "ad": 534,
      "ĠS": 535,
      "ik": 536,
      "ĠI": 537,
      "ument": 538,
      "Ġdocument": 539,
      "ment": 540,
      "pla": 541,
      "06": 542,
      "Ġ6": 543,
      "gu": 544,
      "iv": 545,
      "ug": 546,
      "026": 547,
      "ut": 548,
      "Ġun": 549,
      "sor": 550,
      "ual": 551,
      "Expla": 552,
      "Explain": 553,
      "pt": 554,
      "ide": 555,
      "are": 556,
      "16": 557,
      "cord": 558,
      "Ġ2026": 559,
      "est": 560,
      "ken": 561,
      "wik": 562,
      "Ġk": 563,
      "Ġsp": 564,
      "Ġinter": 565,
      "ition": 566,
      "wiki": 567,
      "Ġinternal": 568,
      "ON": 569,
      "Ġpro": 570,
      "Ġonly": 571,
      "ote": 572,
      "Ġ/": 573,
      "bs": 574,
      "Ġsu": 575,
      "ive": 576,
      "co": 577,
      ");": 578,
      "ice": 579,
      "ated": 580,
      "Ġact": 581,
      "Ġcre": 582,
      "api": 583,
      "dpoint": 584,
      "Ġcur": 585,
      "ode": 586,
      "rans": 587,
      "Ġcreated": 588,
      ").[": 589,
      "ql": 590,
      "sql": 591,
      "Ġpag": 592,
      "Ġdocs": 593,
      "Ġcursor": 594,
      "Ġendpoint": 595,
      "yle": 596,
      "Ġactive": 597,
      "Ġstyle": 598,
      "odel": 599,
      "han": 600,
      "oice": 601,
      "refer": 602,
      "Ġvoice": 603,
      "ĠPrefer": 604,
      "Ġemails": 605,
      "guide": 606,
      "bug": 607,
      "Ġtoken": 608,
      "Ġmodel": 609,
      "\",\"": 610,
      "\":\"": 611,
      "opic": 612,
      "ac": 613,
      "Ġal": 614,
      "Ġh": 615,
      "Ġchan": 616,
      "ign": 617,
      "cl": 618,
      "gn": 619,
      "oun": 620,
      "arch": 621,
      "ĠAS": 622,
      "age": 623,
      "Ġy": 624,
      "Ġreco": 625,
      "search": 626,
      "Ġchang": 627,
      "Ġrecogn": 628,
      "Ġcom": 629,
      "ral": 630,
      "icy": 631,
      "Ġpolicy": 632,
      "ĠRevenue": 633,
      "Ġ606": 634,
      "Ġalign": 635,
      "ĠASC": 636,
      "Ġchanged": 637,
      "Ġrecognition": 638,
      "Ġalignment": 639,
      "ine": 640,
      "Ġform": 641,
      "Ġkeep": 642,
      "note": 643,
      "oRA": 644,
      "Ġada": 645,
      "Ġresearch": 646,
      "Ġbf": 647,
      "Ġbase": 648,
      "etw": 649,
      "pters": 650,
      "ount": 651,
      "Ġadapters": 652,
      "Ġthat": 653,
      "ĠN": 654,
      "ars": 655,
      "ame": 656,
      "im": 657,
      "Ġshort": 658,
      "Ġvers": 659,
      "50": 660,
      "mount": 661,
      "Ġregion": 662,
      "Ġname": 663,
      "act": 664,
      "Ġamount": 665,
      "fs": 666,
      "Ġsub": 667,
      "od": 668,
      "to": 669,
      "Ġoffs": 670,
      "Ġoffset": 671,
      "very": 672,
      "Ġevery": 673,
      "inates": 674,
      "Ġpaginates": 675,
      "der": 676,
      "over": 677,
      "Ġav": 678,
      "Ġhigh": 679,
      "ute": 680,
      "oid": 681,
      "uses": 682,
      "Ġnest": 683,
      "ordinate": 684,
      "Ġclauses": 685,
      "Ġsubordinate": 686,
      "Ġavoid": 687,
      "Ġnested": 688,
      "Cite": 689,
      "Ġsource": 690,
      "Ġinv": 691,
      "out": 692,
      "Ġfact": 693,
      "Ġclaim": 694,
      "Ġfactual": 695,
      "ize": 696,
      "th": 697,
      "Draft": 698,
      "ood": 699,
      "Ġcover": 700,
      "Ġdecl": 701,
      "Ġdeclining": 702,
      "end": 703,
      "Ġsent": 704,
      "ced": 705,
      "Ġbe": 706,
      "Ġcontra": 707,
      "Ġunder": 708,
      "Ġcovering": 709,
      "Ġsentence": 710,
      "Ã©": 711,
      "used": 712,
      "ister": 713,
      "Ġno": 714,
      "ctions": 715,
      "Plan": 716,
      "Use": 717,
      "pon": 718,
      "Ġfoc": 719,
      "Ġfood": 720,
      "Ġregister": 721,
      "Ġformal": 722,
      "Ġfocused": 723,
      "pp": 724,
      "anced": 725,
      "Ġcan": 726,
      "alanced": 727,
      "Ġbalanced": 728,
      "ared": 729,
      "Ġcontractions": 730,
      "swer": 731,
      "Ġrevenue": 732,
      "Ġword": 733,
      "Keep": 734,
      "Ġanswer": 735,
      "Ġwords": 736,
      "QL": 737,
      "ree": 738,
      "Ġfla": 739,
      "ummarize": 740,
      "ĠSQL": 741,
      "Ġyou": 742,
      "Summarize": 743,
      "Ġabs": 744,
      "Ġsqu": 745,
      "Ġbut": 746,
      "olute": 747,
      "Ġspars": 748,
      "Ġflag": 749,
      "Ġabsolute": 750,
      "Ġsquared": 751,
      "Ġsparsity": 752,
      "ack": 753,
      "Gi": 754,
      "ĠJ": 755,
      "Ġout": 756,
      "Ġsend": 757,
      "Ġwrite": 758,
      "Given": 759,
      "De": 760,
      "Ġsw": 761,
      "Ġdraft": 762,
      "Ġjoining": 763,
      "ĠF": 764,
      "Ġwhi": 765,
      "Ġthree": 766,
      "Ġwhile": 767,
      "SON": 768,
      "vers": 769,
      "espon": 770,
      "Ġusing": 771,
      "ĠJSON": 772,
      "Ġkeeping": 773,
      "Debug": 774,
      "LoRA": 775,
      "Respon": 776,
      "bit": 777,
      "antiz": 778,
      "Ġquantiz": 779,
      "ĠQLoRA": 780,
      "ĠNF": 781,
      "Respond": 782,
      "Ġquantizes": 783,
      "ise": 784,
      "lar": 785,
      "What": 786,
      "du": 787,
      "ligh": 788,
      "Ġconc": 789,
      "Ġsummar": 790,
      "Ġstack": 791,
      "ĠIn": 792,
      "Ġversus": 793,
      "Ġhighligh": 794,
      "Ġconcise": 795,
      "Ġsummary": 796,
      "Ġhighlighted": 797,
      "ime": 798,
      "ular": 799,
      "Ġtrace": 800,
      "Ġte": 801,
      "Ġtime": 802,
      "Ġrevers": 803,
      "Ġcomple": 804,
      "ked": 805,
      "yth": 806,
      "ĠPyth": 807,
      "Ġcomplex": 808,
      "ĠPython": 809,
      "?[": 810,
      "ib": 811,
      "ts": 812,
      "ĠH": 813,
      "and": 814,
      "Ġinto": 815,
      "Ġcomplexity": 816,
      "ket": 817,
      "Ġuse": 818,
      "Write": 819,
      "sed": 820,
      "Ġit": 821,
      "ench": 822,
      "Ġregular": 823,
      "Do": 824,
      "hly": 825,
      "inked": 826,
      "Ġlinked": 827,
      "Ġdif": 828,
      "ernal": 829,
      "Ġclo": 830,
      "Ġsm": 831,
      "rag": 832,
      "Ġplan": 833,
      "Ġext": 834,
      "arter": 835,
      "duction": 836,
      "Ġexternal": 837,
      "arterly": 838,
      "The": 839,
      "een": 840,
      "mand": 841,
      "ries": 842,
      "rench": 843,
      "Ġ'": 844,
      "Ġcent": 845,
      "raries": 846,
      "Ġlib": 847,
      "Ġbetw": 848,
      "Ġquarterly": 849,
      "Ġtoday": 850,
      "Ġdemand": 851,
      "ĠFrench": 852,
      "Ġregularization": 853,
      "Ġclosed": 854,
      "Ġcentral": 855,
      "Ġlibraries": 856,
      "Ġbetween": 857,
      "Trans": 858,
      "Vo": 859,
      "Ġwe": 860,
      "late": 861,
      "ici": 862,
      "Ġtraduction": 863,
      "Ġanomalies": 864,
      "Ã©e": 865,
      "Ġdifference": 866,
      "ĠdemandÃ©e": 867,
      "Translate": 868,
      "Voici": 869,
      "'[": 870,
      ".'[": 871,
      "rin": 872,
      "rashiyama": 873,
      "igashiyama": 874,
      "ĠArashiyama": 875,
      "Ġ150": 876,
      "Ġreport": 877,
      "ĠHigashiyama": 878,
      "cou": 879,
      "courag": 880,
      "oot": 881,
      "iner": 882,
      "Ġpla": 883,
      "ary": 884,
      "ights": 885,
      "Ġencourag": 886,
      "Ġshrin": 887,
      "Ġsmoot": 888,
      "Ġweights": 889,
      "Ġencourages": 890,
      "Ġshrinks": 891,
      "Ġsmoothly": 892,
      "Ġran": 893,
      "Ġitiner": 894,
      "Ġitinerary": 895,
      "mples": 896,
      "Ġtemples": 897,
      "cu": 898,
      "Ġer": 899,
      "eting": 900,
      "Ġmeeting": 901,
      "Ġinvite": 902,
      "Ġerror": 903,
      "Merge": 904,
      "That": 905,
      "Ġaver": 906,
      "ans": 907,
      "Ġmeans": 908,
      "ĠIndex": 909,
      "Ġaverage": 910,
      "Er": 911,
      "Error": 912,
      "Ġrange": 913,
      "Ġapp": 914,
      "low": 915,
      "ach": 916,
      "sum": 917,
      "roach": 918,
      "stomer": 919,
      "pointer": 920,
      "Ġswap": 921,
      "ĠIndexError": 922,
      "Ġapproach": 923,
      "Ġassum": 924,
      "customer": 925,
      "Ġreference": 926,
      "Ġassuming": 927,
      "Ġreferences": 928,
      "Ġmerge": 929,
      "Ġbelow": 930,
      "Ġex": 931,
      "Ġanomaly": 932,
      "item": 933,
      "ss": 934,
      "Ġitem": 935,
      "bas": 936,
      "Ġreverses": 937,
      "Ġplace": 938,
      "Ġlower": 939,
      "Ġmar": 940,
      "Ġmarket": 941,
      "ĠĊ": 942,
      "Ġproce": 943,
      "Ġread": 944,
      "Ġloop": 945,
      "Ġpast": 946,
      "Ġlast": 947,
      "Ġreading": 948,
      "ip": 949,
      "el": 950,
      "00": 951,
      "Ġprocess": 952,
      "Ġstat": 953,
      "cy": 954,
      "ency": 955,
      "atency": 956,
      "based": 957,
      "Ġexample": 958,
      "Ġlatency": 959,
      "orted": 960,
      "Ġid": 961,
      "âĢ": 962,
      "Ġ{": 963,
      "Ġpre": 964,
      "tr": 965,
      "mb": 966,
      "ok": 967,
      "ĠEx": 968,
      "ĠAt": 969,
      "Ġpip": 970,
      "Ġ{\"": 971,
      "Ġms": 972,
      "ĠExample": 973,
      "Ġvar": 974,
      "Ġused": 975,
      "iant": 976,
      "record": 977,
      "ĠTe": 978,
      "Ġpay": 979,
      "Ġreported": 980,
      "Ġvariant": 981,
      "Ġvariants": 982,
      "topic": 983,
      "ĠTopic": 984,
      "load": 985,
      "ĠRecord": 986,
      "Ġjob": 987,
      "Ġitems": 988,
      "eline": 989,
      "Ġstatus": 990,
      "Ġpipeline": 991,
      "ĠText": 992,
      "Ġpayload": 993,
      "ata": 994,
      "âĢĻ": 995,
      "OK": 996,
      "ab": 997,
      "Ġ0": 998,
      "true": 999,
      "ore": 1000,
      "ins": 1001,
      "Ġâ": 1002,
      "Ġtokenization": 1003,
      "ĠĠ": 1004,
      "ication": 1005,
      "ess": 1006,
      "ions": 1007,
      "izer": 1008,
      "essions": 1009,
      "Ġtokenizer": 1010,
      "ĠâĤ": 1011,
      "ering": 1012,
      "ĠâĤ¹": 1013,
      ").": 1014,
      "01": 1015,
      "tra": 1016,
      "doc": 1017,
      "ix": 1018,
      "Ġsy": 1019,
      "ility": 1020,
      "entif": 1021,
      "Ġconta": 1022,
      "%,": 1023,
      "ols": 1024,
      "Ġidentif": 1025,
      "mbols": 1026,
      "ability": 1027,
      "ixed": 1028,
      "Ġsymbols": 1029,
      "Ġidentifi": 1030,
      "ĠExplain": 1031,
      "tem": 1032,
      "Ġscore": 1033,
      "training": 1034,
      "Ġcontains": 1035,
      "Ġsample": 1036,
      "Ġmixed": 1037,
      "ĠItem": 1038,
      "Ġidentifier": 1039,
      "Ġdata": 1040,
      "Ġle": 1041,
      "==": 1042,
      "--": 1043,
      "atu": 1044,
      "Ġcl": 1045,
      "Ġsessions": 1046,
      "ds": 1047,
      "ay": 1048,
      "istic": 1049,
      "istics": 1050,
      "ul": 1051,
      "Ġ7": 1052,
      "Ġat": 1053,
      "data": 1054,
      "ience": 1055,
      "res": 1056,
      "Ġscience": 1057,
      "Ġ9": 1058,
      "ĠC": 1059,
      "TI": 1060,
      "Ġ5": 1061,
      "oft": 1062,
      "bases": 1063,
      "Ġ8": 1064,
      "arn": 1065,
      "ware": 1066,
      "Ġexp": 1067,
      "lication": 1068,
      "oftware": 1069,
      "Ġlearn": 1070,
      "action": 1071,
      "gine": 1072,
      "Ġengine": 1073,
      "ransaction": 1074,
      "Ġengineering": 1075,
      "Ġpoint": 1076,
      "Ġuser": 1077,
      "Ġ12": 1078,
      "tion": 1079,
      "guage": 1080,
      "Ġlearning": 1081,
      "ust": 1082,
      "anguage": 1083,
      "Ġlanguage": 1084,
      "ings": 1085,
      "ification": 1086,
      "Ġexpi": 1087,
      "15": 1088,
      "Ġad": 1089,
      "mach": 1090,
      "assification": 1091,
      "machine": 1092,
      "am": 1093,
      "pu": 1094,
      "Ġusers": 1095,
      "ging": 1096,
      "Ġ\"": 1097,
      "Ġg": 1098,
      "Ġro": 1099,
      "erv": 1100,
      "bserv": 1101,
      "Ġprocessing": 1102,
      "atural": 1103,
      "ull": 1104,
      "Ġspik": 1105,
      "mbed": 1106,
      "puter": 1107,
      "ener": 1108,
      "Ġstatistics": 1109,
      "bservability": 1110,
      "mbedd": 1111,
      "79": 1112,
      "ling": 1113,
      "ser": 1114,
      "Ġr": 1115,
      "orks": 1116,
      "rol": 1117,
      "Ġinser": 1118,
      "Ġnetw": 1119,
      "Ġcontrol": 1120,
      "Ġadds": 1121,
      "Ġinsertion": 1122,
      "Ġnetworks": 1123,
      "TION": 1124,
      "eneration": 1125,
      "bability": 1126,
      "pling": 1127,
      "Ġo": 1128,
      "Ġfro": 1129,
      "ustering": 1130,
      "ampling": 1131,
      "32": 1132,
      "NG": 1133,
      "red": 1134,
      "bugging": 1135,
      "able": 1136,
      "mbeddings": 1137,
      "35": 1138,
      "47": 1139,
      "put": 1140,
      "Ġreplication": 1141,
      "55": 1142,
      "til": 1143,
      "Ġtransaction": 1144,
      "Ġby": 1145,
      "====": 1146,
      "31": 1147,
      "ĠM": 1148,
      "04": 1149,
      "ention": 1150,
      "Ġuntil": 1151,
      "yment": 1152,
      "ĠB": 1153,
      "roug": 1154,
      "itation": 1155,
      "loyment": 1156,
      "rough": 1157,
      "ING": 1158,
      "tention": 1159,
      "main": 1160,
      "Ġconference": 1161,
      "rank": 1162,
      "Ġprom": 1163,
      "Ġinvitation": 1164,
      "Ġclassification": 1165,
      "44": 1166,
      "58": 1167,
      "os": 1168,
      "toc": 1169,
      "Ġtr": 1170,
      "Ġdebugging": 1171,
      "ĠĠĠ": 1172,
      "Ġobservability": 1173,
      "tocol": 1174,
      "07": 1175,
      "12": 1176,
      "39": 1177,
      "fal": 1178,
      "zen": 1179,
      "Ġtable": 1180,
      "isual": 1181,
      "Ġlow": 1182,
      "ĠLoRA": 1183,
      "Ġtrains": 1184,
      "Ġkeeps": 1185,
      "Ġversion": 1186,
      "ipe": 1187,
      "----": 1188,
      "Ġfrozen": 1189,
      "false": 1190,
      "isualization": 1191,
      "18": 1192,
      "42": 1193,
      "che": 1194,
      "eatu": 1195,
      "Ġ-": 1196,
      "Ġinference": 1197,
      "Ġremain": 1198,
      "mber": 1199,
      "roughput": 1200,
      "eatures": 1201,
      "37": 1202,
      "38": 1203,
      "49": 1204,
      "68": 1205,
      "Ġhe": 1206,
      "Ġol": 1207,
      "Ġsampling": 1208,
      "tember": 1209,
      "ress": 1210,
      "use": 1211,
      "Ġrecord": 1212,
      "itche": 1213,
      "eployment": 1214,
      "eptember": 1215,
      "ĠStr": 1216,
      "ĠSeptember": 1217,
      "Ġprobability": 1218,
      "Ġdatabases": 1219,
      "databases": 1220,
      "Ġgeneration": 1221,
      "itched": 1222,
      "75": 1223,
      "com": 1224,
      "ear": 1225,
      "gac": 1226,
      "ssor": 1227,
      "Ġsoftware": 1228,
      "Ġfin": 1229,
      "ĠPay": 1230,
      "Ġswitched": 1231,
      "Ġprocessor": 1232,
      "Ġlegac": 1233,
      "ĠMay": 1234,
      "Ġold": 1235,
      "Ġrecords": 1236,
      "ĠStripe": 1237,
      "ĠPayment": 1238,
      "Ġlegacy": 1239,
      "19": 1240,
      "IC": 1241,
      "bon": 1242,
      "lf": 1243,
      "isbon": 1244,
      "ums": 1245,
      "Ġmuse": 1246,
      "ĠLisbon": 1247,
      "place": 1248,
      "Ġsupp": 1249,
      "Ġclustering": 1250,
      "Ġtrip": 1251,
      "Ġmuseums": 1252,
      "08": 1253,
      "09": 1254,
      "software": 1255,
      "Ġembeddings": 1256,
      "uting": 1257,
      "Ġreverse": 1258,
      "Ġpointers": 1259,
      "Ġexpired": 1260,
      "Ġfinds": 1261,
      "05": 1262,
      "46": 1263,
      "72": 1264,
      "fore": 1265,
      "Ġ(": 1266,
      "ĠV": 1267,
      "ination": 1268,
      "Ġuses": 1269,
      "Ġ47": 1270,
      "Ġpagination": 1271,
      "Ġbefore": 1272,
      "ression": 1273,
      "Ġsupport": 1274,
      "14": 1275,
      "ER": 1276,
      "sessions": 1277,
      "Ġnull": 1278,
      "Ġdere": 1279,
      "Ġdeployment": 1280,
      "itions": 1281,
      "Ġsentences": 1282,
      "Ġpointer": 1283,
      "Ġ120": 1284,
      "Ġspike": 1285,
      "Ġdereference": 1286,
      "45": 1287,
      "78": 1288,
      "ATION": 1289,
      "line": 1290,
      "Ġmachine": 1291,
      "cept": 1292,
      "Ġvisualization": 1293,
      "ates": 1294,
      "Ġ15": 1295,
      "Ġ16": 1296,
      "otes": 1297,
      "els": 1298,
      "Ġattention": 1299,
      "ĠG": 1300,
      "Ġpos": 1301,
      "erside": 1302,
      "Ġfeatures": 1303,
      "ĠAlf": 1304,
      "iverside": 1305,
      "Ġprotocol": 1306,
      "Ġcomputer": 1307,
      "arsing": 1308,
      "Ã©m": 1309,
      "Ġoutline": 1310,
      "elÃ©m": 1311,
      "Ġriverside": 1312,
      "ĠBelÃ©m": 1313,
      "ĠAlfama": 1314,
      "22": 1315,
      "36": 1316,
      "56": 1317,
      "cket": 1318,
      "natural": 1319,
      "tates": 1320,
      "Â²": 1321,
      "Ġnatural": 1322,
      "Ġnear": 1323,
      "Ġ11": 1324,
      "Ġ14": 1325,
      "Ġhigher": 1326,
      "Ġexpires": 1327,
      "Ġrotates": 1328,
      "Ġpositions": 1329,
      "29": 1330,
      "99": 1331,
      "He": 1332,
      "WAR": 1333,
      "bels": 1334,
      "Ġse": 1335,
      "Ġsorted": 1336,
      "Ġthroughput": 1337,
      "esting": 1338,
      "Ġformer": 1339,
      "Ġpromotes": 1340,
      "Ġheap": 1341,
      "computer": 1342,
      "Ġnearly": 1343,
      "Heap": 1344,
      "WARN": 1345,
      "33": 1346,
      "48": 1347,
      "Point": 1348,
      "erEx": 1349,
      "Ġline": 1350,
      "atistics": 1351,
      "Ġpacket": 1352,
      "ĠNull": 1353,
      "Ġrouting": 1354,
      "ception": 1355,
      "PointerEx": 1356,
      "ĠNullPointerEx": 1357,
      "ĠNullPointerException": 1358,
      "11": 1359,
      "27": 1360,
      "28": 1361,
      "98": 1362,
      "ect": 1363,
      "ĠD": 1364,
      "erday": 1365,
      "usual": 1366,
      "Ġunusual": 1367,
      "esterday": 1368,
      "Ġyesterday": 1369,
      "Ġspikes": 1370,
      "006": 1371,
      "34": 1372,
      "PL": 1373,
      "Ġregression": 1374,
      "Ġlabels": 1375,
      "008": 1376,
      "30": 1377,
      "70": 1378,
      "SI": 1379,
      "Ġtesting": 1380,
      "ĠCl": 1381,
      "77": 1382,
      "Ġplay": 1383,
      "Ġ04": 1384,
      "Ġ08": 1385,
      "002": 1386,
      "13": 1387,
      "17": 1388,
      "20": 1389,
      "26": 1390,
      "53": 1391,
      "ĠâĢ": 1392,
      "Ġparsing": 1393,
      "Ġ17": 1394,
      "Ġ19": 1395,
      "========": 1396,
      "ICATION": 1397,
      "):": 1398,
      "40": 1399,
      "54": 1400,
      "ir": 1401,
      "pro": 1402,
      "Ġ=": 1403,
      "token": 1404,
      "009": 1405,
      "10": 1406,
      "57": 1407,
      "AB": 1408,
      "ie": 1409,
      "ĠE": 1410,
      "Ġstr": 1411,
      "Ġ10": 1412,
      "Ġ18": 1413,
      "ĠRE": 1414,
      "ĠCL": 1415,
      "..": 1416,
      "25": 1417,
      "61": 1418,
      "AC": 1419,
      "ur": 1420,
      "Ġ06": 1421,
      "Ġ13": 1422,
      "Ġ09": 1423,
      "43": 1424,
      "51": 1425,
      "52": 1426,
      "71": 1427,
      "76": 1428,
      "Ġ02": 1429,
      "Ġ20": 1430,
      "\",": 1431,
      "24": 1432,
      "59": 1433,
      "74": 1434,
      "89": 1435,
      "IL": 1436,
      "IT": 1437,
      "ient": 1438,
      "ms": 1439,
      "ĠW": 1440,
      "Ġra": 1441,
      "ĠPro": 1442,
      "--------": 1443,
      "ĠDE": 1444,
      "ABIL": 1445,
      "ITY": 1446,
      "ABILITY": 1447,
      "21": 1448,
      "41": 1449,
      "PI": 1450,
      "RE": 1451,
      "SSI": 1452,
      "ial": 1453,
      "Ġma": 1454,
      "ROU": 1455,
      "ank": 1456,
      "all": 1457,
      "Ġ21": 1458,
      "ĠSt": 1459,
      "ĠIN": 1460,
      "Ġ03": 1461,
      "ĠĠĠĠ": 1462,
      "Ġprompt": 1463,
      "73": 1464,
      "88": 1465,
      "ATI": 1466,
      "di": 1467,
      "ĠST": 1468,
      "statistics": 1469,
      "STIC": 1470,
      "RAN": 1471,
      "Ġres": 1472,
      "ĠPRO": 1473,
      "Ġ22": 1474,
      "Ġ05": 1475,
      "ector": 1476,
      "ĠStatistics": 1477,
      "ATISTIC": 1478,
      "ĠSTATISTIC": 1479,
      "ĠSTATISTICS": 1480,
      "03": 1481,
      "016": 1482,
      "66": 1483,
      "91": 1484,
      "93": 1485,
      "KE": 1486,
      "sc": 1487,
      "word": 1488,
      "Ġ$": 1489,
      "ĠY": 1490,
      "Ġor": 1491,
      "ENC": 1492,
      "Ġmin": 1493,
      "Ġdef": 1494,
      "ĠRep": 1495,
      "Ġrun": 1496,
      "87": 1497,
      "96": 1498,
      "SAC": 1499,
      "],": 1500,
      "ble": 1501,
      "ec": 1502,
      "ey": 1503,
      "mer": 1504,
      "plication": 1505,
      "transaction": 1506,
      "Ġ<": 1507,
      "Ġac": 1508,
      "str": 1509,
      "replication": 1510,
      "Ġper": 1511,
      "query": 1512,
      "Ġbil": 1513,
      "ĠTo": 1514,
      "ĠTransaction": 1515,
      "ĠTRAN": 1516,
      "ĠAT": 1517,
      "Ġ35": 1518,
      "Ġ39": 1519,
      "Ġ26": 1520,
      "utes": 1521,
      "Ġpredi": 1522,
      "trie": 1523,
      "Ġ59": 1524,
      "Ġfrom": 1525,
      "PLICATION": 1526,
      "ĠâĢĶ": 1527,
      "ĠREPLICATION": 1528,
      "urn": 1529,
      "ĠReplication": 1530,
      "SACTION": 1531,
      "ĠTRANSACTION": 1532,
      ".\"": 1533,
      "97": 1534,
      "AM": 1535,
      "AT": 1536,
      "ASSI": 1537,
      "FICATION": 1538,
      "IZ": 1539,
      "ld": 1540,
      "ow": 1541,
      "turn": 1542,
      "ve": 1543,
      "ĠU": 1544,
      "Ġ50": 1545,
      "index": 1546,
      "Ġare": 1547,
      "Ġreturn": 1548,
      "ard": 1549,
      "Ġ23": 1550,
      "Ġ25": 1551,
      "clu": 1552,
      "classification": 1553,
      "Ġtext": 1554,
      "âĢĵ": 1555,
      "ĠClassification": 1556,
      "ĠCLASSI": 1557,
      "ĠĠĠĠĠĠĠ": 1558,
      "Ġminutes": 1559,
      "IZATION": 1560,
      "ĠCLASSIFICATION": 1561,
      "23": 1562,
      "2026": 1563,
      "63": 1564,
      "64": 1565,
      "84": 1566,
      "95": 1567,
      "PU": 1568,
      "TROL": 1569,
      "UST": 1570,
      "__": 1571,
      "ex": 1572,
      "gression": 1573,
      "ps": 1574,
      "Ġ>": 1575,
      "Ġ}": 1576,
      "Ġif": 1577,
      "erank": 1578,
      "ste": 1579,
      "|>,": 1580,
      "rame": 1581,
      "ersion": 1582,
      "ould": 1583,
      "Ġvector": 1584,
      "ĠTh": 1585,
      "Ġ30": 1586,
      "ONTROL": 1587,
      "Ġtokens": 1588,
      "clustering": 1589,
      "acket": 1590,
      "version": 1591,
      "ĠâĪ": 1592,
      "Ġclass": 1593,
      "ĠCONTROL": 1594,
      "ĠVER": 1595,
      "ĠVersion": 1596,
      "ERING": 1597,
      "ĠGeneration": 1598,
      "SION": 1599,
      "ĠClustering": 1600,
      "================": 1601,
      "ĠCLUST": 1602,
      "score": 1603,
      "ĠToken": 1604,
      "ĠVERSION": 1605,
      "ĠCLUSTERING": 1606,
      "67": 1607,
      "82": 1608,
      "85": 1609,
      "86": 1610,
      "BU": 1611,
      "BABILITY": 1612,
      "ED": 1613,
      "ERA": 1614,
      "GG": 1615,
      "OL": 1616,
      "RV": 1617,
      "aul": 1618,
      "ck": 1619,
      "embeddings": 1620,
      "generation": 1621,
      "observability": 1622,
      "ph": 1623,
      "sampling": 1624,
      "ĠÂ": 1625,
      "ĠOB": 1626,
      "ĠDebug": 1627,
      "Ġ00": 1628,
      "ĠROU": 1629,
      "ENERA": 1630,
      "SERV": 1631,
      "led": 1632,
      "ash": 1633,
      "ross": 1634,
      "routing": 1635,
      "Ġdo": 1636,
      "qui": 1637,
      "ical": 1638,
      "Ġembedd": 1639,
      "Ġtop": 1640,
      "debugging": 1641,
      "ĠObservability": 1642,
      "Ġmy": 1643,
      "Ġenco": 1644,
      "Ġ37": 1645,
      "Ġtrain": 1646,
      "Ġ102": 1647,
      "ĠRout": 1648,
      "Ġ43": 1649,
      "ĠSampling": 1650,
      "ĠSAM": 1651,
      "Ġ63": 1652,
      "Ġ69": 1653,
      "Ġcomp": 1654,
      "Ġ72": 1655,
      "Ġ76": 1656,
      "Ġ92": 1657,
      "Ġ99": 1658,
      "TING": 1659,
      "799": 1660,
      "Ġrerank": 1661,
      "Ġhel": 1662,
      "ĠGENERA": 1663,
      "PLING": 1664,
      "probability": 1665,
      "Ġstrings": 1666,
      "ĠProbability": 1667,
      "ĠDEBU": 1668,
      "ĠPROBABILITY": 1669,
      "ĠYes": 1670,
      "ENCE": 1671,
      "Ġdefaul": 1672,
      "ecial": 1673,
      "Ġpredict": 1674,
      "clude": 1675,
      "example": 1676,
      "GGING": 1677,
      "ĠOBSERV": 1678,
      "ĠDebugging": 1679,
      "ĠROUTING": 1680,
      "ĠRouting": 1681,
      "ĠSAMPLING": 1682,
      "ĠGENERATION": 1683,
      "ĠDEBUGGING": 1684,
      "Ġdefault": 1685,
      "ĠOBSERVABILITY": 1686,
      "200": 1687,
      "65": 1688,
      "81": 1689,
      "83": 1690,
      "92": 1691,
      "94": 1692,
      "API": 1693,
      "BED": 1694,
      "DE": 1695,
      "DING": 1696,
      "FER": 1697,
      "MBED": 1698,
      "cent": 1699,
      "count": 1700,
      "dk": 1701,
      "fter": 1702,
      "ful": 1703,
      "gra": 1704,
      "king": 1705,
      "lation": 1706,
      "latency": 1707,
      "min": 1708,
      "mon": 1709,
      "pple": 1710,
      "sdk": 1711,
      "ys": 1712,
      "Ġ--------": 1713,
      "inference": 1714,
      "Ġar": 1715,
      "stall": 1716,
      "Ġtrans": 1717,
      "retrie": 1718,
      "Ġanal": 1719,
      "Ġpr": 1720,
      "lable": 1721,
      "Ġdis": 1722,
      "eds": 1723,
      "ctu": 1724,
      "umb": 1725,
      "Ġmust": 1726,
      "Ġcond": 1727,
      "Ġcons": 1728,
      "ations": 1729,
      "Ġ100": 1730,
      "option": 1731,
      "Ġ24": 1732,
      "Ġ28": 1733,
      "Ġ41": 1734,
      "Ġ45": 1735,
      "Ġ46": 1736,
      "Ġ60": 1737,
      "Ġ61": 1738,
      "Ġ64": 1739,
      "Ġcomput": 1740,
      "ĠInference": 1741,
      "âĢĿ": 1742,
      "Ġ07": 1743,
      "Ġclient": 1744,
      "Ġ74": 1745,
      "Ġ78": 1746,
      "Ġ79": 1747,
      "Ġ94": 1748,
      "Ġ96": 1749,
      "Ġ53": 1750,
      "Ġ54": 1751,
      "Ġ85": 1752,
      "Ġ86": 1753,
      "ĠâĢľ": 1754,
      "ĠEmbeddings": 1755,
      "ĠEMBED": 1756,
      "...\"": 1757,
      "ĠWe": 1758,
      "ĠINDE": 1759,
      "ĠINFER": 1760,
      "KEY": 1761,
      "ĠATP": 1762,
      "own": 1763,
      "ĠTokenization": 1764,
      "quired": 1765,
      "Ġembedding": 1766,
      "DINGS": 1767,
      "optional": 1768,
      "ĠEMBEDDINGS": 1769,
      "ĠINDEX": 1770,
      "ĠINFERENCE": 1771,
      "\")": 1772,
      "//": 1773,
      "69": 1774,
      "90": 1775,
      "://": 1776,
      "={": 1777,
      "GH": 1778,
      "HROU": 1779,
      "MEN": 1780,
      "OY": 1781,
      "SU": 1782,
      "TOC": 1783,
      "UER": 1784,
      "ai": 1785,
      "ain": 1786,
      "ding": 1787,
      "ded": 1788,
      "dar": 1789,
      "for": 1790,
      "js": 1791,
      "ject": 1792,
      "lit": 1793,
      "port": 1794,
      "ployment": 1795,
      "sp": 1796,
      "tt": 1797,
      "ters": 1798,
      "uery": 1799,
      "Ġ#": 1800,
      "Ġi": 1801,
      "ĠÎ": 1802,
      "ĠHere": 1803,
      "ENIZATION": 1804,
      "Ġab": 1805,
      "one": 1806,
      "ens": 1807,
      "enco": 1808,
      "test": 1809,
      "roun": 1810,
      "istent": 1811,
      "Ġthey": 1812,
      "Ġfir": 1813,
      "assword": 1814,
      "Ġwas": 1815,
      "Ġwat": 1816,
      "its": 1817,
      "Ġnumb": 1818,
      "Ġdal": 1819,
      "Ġboun": 1820,
      "deployment": 1821,
      "ocab": 1822,
      "ĠTOK": 1823,
      "ĠTHROU": 1824,
      "ferent": 1825,
      "off": 1826,
      "ĠAPI": 1827,
      "ill": 1828,
      "Ġparame": 1829,
      "self": 1830,
      "Ġ36": 1831,
      "Ġ38": 1832,
      "ĠQUER": 1833,
      "ĠQuery": 1834,
      "Ġvalu": 1835,
      "Ġ40": 1836,
      "Ġ42": 1837,
      "Ġ48": 1838,
      "028": 1839,
      "ĠSc": 1840,
      "ike": 1841,
      "Ġ67": 1842,
      "Ġ68": 1843,
      "Ġprodu": 1844,
      "Ġsuch": 1845,
      "Ġsubword": 1846,
      "throughput": 1847,
      "ponse": 1848,
      "ible": 1849,
      "kets": 1850,
      "Ġsmall": 1851,
      "ell": 1852,
      "ĠAttention": 1853,
      "Ġ01": 1854,
      "ĠâĨ": 1855,
      "train": 1856,
      "ays": 1857,
      "ults": 1858,
      "Ġ71": 1859,
      "Ġ75": 1860,
      "Ġ77": 1861,
      "Ġ91": 1862,
      "Ġ93": 1863,
      "Ġ97": 1864,
      "Ġ51": 1865,
      "Ġ52": 1866,
      "Ġ55": 1867,
      "Ġ56": 1868,
      "Ġ58": 1869,
      "Ġ80": 1870,
      "Ġ81": 1871,
      "Ġ83": 1872,
      "Ġ84": 1873,
      "Ġ88": 1874,
      "Ġ89": 1875,
      "Ġbyte": 1876,
      "Ġseeds": 1877,
      "ĠDeployment": 1878,
      "PLOY": 1879,
      "protocol": 1880,
      "tokenization": 1881,
      "Ġrate": 1882,
      "ĠProtocol": 1883,
      "ĠDEPLOY": 1884,
      "ĠPROTOC": 1885,
      "meric": 1886,
      "string": 1887,
      "Ġbill": 1888,
      "PUT": 1889,
      "ĠThroughput": 1890,
      "month": 1891,
      "Ġanaly": 1892,
      "GHPUT": 1893,
      "MENT": 1894,
      "ailable": 1895,
      "daries": 1896,
      "json": 1897,
      "round": 1898,
      "Ġwater": 1899,
      "Ġboundaries": 1900,
      "ĠTOKENIZATION": 1901,
      "ĠTHROUGHPUT": 1902,
      "ĠQUERY": 1903,
      "ĠDEPLOYMENT": 1904,
      "ĠPROTOCOL": 1905,
      "\"]": 1906,
      "(\"": 1907,
      "100": 1908,
      "450": 1909,
      "60": 1910,
      "62": 1911,
      "779": 1912,
      "719": 1913,
      "80": 1914,
      "CH": 1915,
      "ET": 1916,
      "EV": 1917,
      "EST": 1918,
      "EAT": 1919,
      "GRE": 1920,
      "ISU": 1921,
      "IEV": 1922,
      "LS": 1923,
      "MA": 1924,
      "RIEV": 1925,
      "SD": 1926,
      "SING": 1927,
      "TEN": 1928,
      "TRIEV": 1929,
      "URE": 1930,
      "[\"": 1931,
      "]:": 1932,
      "av": 1933,
      "ast": 1934,
      "ara": 1935,
      "amount": 1936,
      "bic": 1937,
      "cre": 1938,
      "features": 1939,
      "ges": 1940,
      "hen": 1941,
      "ll": 1942,
      "lu": 1943,
      "model": 1944,
      "name": 1945,
      "ole": 1946,
      "oks": 1947,
      "ook": 1948,
      "obic": 1949,
      "parsing": 1950,
      "packet": 1951,
      "sy": 1952,
      "txt": 1953,
      "top": 1954,
      "uctu": 1955,
      "visualization": 1956,
      "vir": 1957,
      "âĤ": 1958,
      "Ġ.": 1959,
      "Ġim": 1960,
      "Ġover": 1961,
      "ĠError": 1962,
      "Ġ--": 1963,
      "Ġ__": 1964,
      "erobic": 1965,
      "Ġafter": 1966,
      "|>\"": 1967,
      "ARSING": 1968,
      "les": 1969,
      "Ġch": 1970,
      "Ġcap": 1971,
      "Ġcod": 1972,
      "Ġsel": 1973,
      "Ġsoft": 1974,
      "regression": 1975,
      "heck": 1976,
      "Ġinclude": 1977,
      "Ġinstall": 1978,
      "Ġland": 1979,
      "Ġlike": 1980,
      "oug": 1981,
      "Ġref": 1982,
      "Ġretrie": 1983,
      "Ġfol": 1984,
      "Ġfell": 1985,
      "ALIZATION": 1986,
      "attention": 1987,
      "esla": 1988,
      "Ġdep": 1989,
      "ours": 1990,
      "quence": 1991,
      "Ġvocab": 1992,
      "Ġthrough": 1993,
      "art": 1994,
      "oth": 1995,
      "Ġlooks": 1996,
      "och": 1997,
      "ĠTesting": 1998,
      "ĠTEST": 1999,
      "unk": 2000,
      "Ġmor": 2001,
      "Ġmole": 2002,
      "ĠLatency": 2003,
      "ĠLAT": 2004,
      "Ġstill": 2005,
      "Ġconstraint": 2006,
      "log": 2007,
      "ĠParsing": 2008,
      "ĠPAC": 2009,
      "ĠPacket": 2010,
      "ĠPARSING": 2011,
      "Ġ31": 2012,
      "Ġ32": 2013,
      "Ġ33": 2014,
      "Ġ34": 2015,
      "Ġshould": 2016,
      "Ġ27": 2017,
      "Ġ29": 2018,
      "Ġ215": 2019,
      "ĠRegression": 2020,
      "Ġrepres": 2021,
      "Ġ44": 2022,
      "Ġ49": 2023,
      "025": 2024,
      "ĠSet": 2025,
      "Ġdocuments": 2026,
      "066": 2027,
      "Ġ62": 2028,
      "Ġ65": 2029,
      "Ġ66": 2030,
      "ares": 2031,
      "Ġkey": 2032,
      "Ġspecial": 2033,
      "Ġsplit": 2034,
      "Ġactiv": 2035,
      "Ġtokenize": 2036,
      "Ġhours": 2037,
      "Ġyear": 2038,
      "ĠFeatures": 2039,
      "ĠFEAT": 2040,
      "cur": 2041,
      "Ġâī": 2042,
      "Ġ70": 2043,
      "Ġ73": 2044,
      "Ġ90": 2045,
      "Ġ95": 2046,
      "Ġ98": 2047,
      "Ġ57": 2048,
      "Ġ82": 2049,
      "Ġ87": 2050,
      "Ġadd": 2051,
      "Ġ\"<|": 2052,
      "Ġ\"...\"": 2053,
      "326": 2054,
      "042": 2055,
      "043": 2056,
      "ĠVisualization": 2057,
      "ĠVISU": 2058,
      "Ġ163": 2059,
      "Ġ117": 2060,
      "Ġ140": 2061,
      "Ġsequence": 2062,
      "ĠClient": 2063,
      "Ġplayful": 2064,
      "tokenizer": 2065,
      "ĠREGRE": 2066,
      "SSION": 2067,
      "Ġresults": 2068,
      "KET": 2069,
      "ENCY": 2070,
      "Ġacross": 2071,
      "Ġpercent": 2072,
      "Ġbilled": 2073,
      "ĠATTEN": 2074,
      "Ġclassic": 2075,
      "Ġ1024": 2076,
      "Ġhello": 2077,
      "gram": 2078,
      "Ġarr": 2079,
      "retrieve": 2080,
      "Ġcomputation": 2081,
      "ttps": 2082,
      "testing": 2083,
      "Ġvalues": 2084,
      "Ġbillion": 2085,
      "TRIEVAL": 2086,
      "URES": 2087,
      "uctured": 2088,
      "viron": 2089,
      "Ġ---": 2090,
      "Ġcodes": 2091,
      "Ġself": 2092,
      "Ġretrieval": 2093,
      "ĠTESTING": 2094,
      "Ġmolecu": 2095,
      "ĠLATENCY": 2096,
      "ĠPACKET": 2097,
      "ĠFEATURES": 2098,
      "Ġ\"...\"}": 2099,
      "ĠVISUALIZATION": 2100,
      "ĠREGRESSION": 2101,
      "ĠATTENTION": 2102,
      "'t": 2103,
      "()": 2104,
      "112": 2105,
      "247": 2106,
      "239": 2107,
      "538": 2108,
      "607": 2109,
      "768": 2110,
      "868": 2111,
      "975": 2112,
      "::": 2113,
      "=\"": 2114,
      "ELS": 2115,
      "EMA": 2116,
      "IN": 2117,
      "RL": 2118,
      "ak": 2119,
      "air": 2120,
      "arame": 2121,
      "book": 2122,
      "cipe": 2123,
      "dr": 2124,
      "ek": 2125,
      "ecur": 2126,
      "git": 2127,
      "get": 2128,
      "gment": 2129,
      "gred": 2130,
      "key": 2131,
      "li": 2132,
      "lic": 2133,
      "ming": 2134,
      "med": 2135,
      "ne": 2136,
      "ning": 2137,
      "nual": 2138,
      "ndpoint": 2139,
      "ney": 2140,
      "og": 2141,
      "ost": 2142,
      "pus": 2143,
      "pecial": 2144,
      "pair": 2145,
      "rice": 2146,
      "rie": 2147,
      "the": 2148,
      "tend": 2149,
      "tings": 2150,
      "tical": 2151,
      "up": 2152,
      "ure": 2153,
      "uch": 2154,
      "vide": 2155,
      "vector": 2156,
      "wn": 2157,
      "way": 2158,
      "yp": 2159,
      "}\")": 2160,
      "áµ": 2161,
      "Ġ+": 2162,
      "Ġx": 2163,
      "ĠÏ": 2164,
      "Ġrole": 2165,
      "Ġord": 2166,
      "ĠWhat": 2167,
      "Ġ================": 2168,
      "Ġoptional": 2169,
      "include": 2170,
      "Ġapple": 2171,
      "Ġaround": 2172,
      "stions": 2173,
      "ondr": 2174,
      "Ġtur": 2175,
      "Ġtsp": 2176,
      "orpus": 2177,
      "ented": 2178,
      "environ": 2179,
      "lev": 2180,
      "anel": 2181,
      "Ġcross": 2182,
      "Ġcheck": 2183,
      "requ": 2184,
      "rect": 2185,
      "required": 2186,
      "hee": 2187,
      "hes": 2188,
      "ces": 2189,
      "ceive": 2190,
      "cess": 2191,
      "Ġannual": 2192,
      "ally": 2193,
      "Ġph": 2194,
      "Ġpat": 2195,
      "Ġpassword": 2196,
      "Ġinf": 2197,
      "Ġint": 2198,
      "Ġinfer": 2199,
      "Ġlim": 2200,
      "Ġreq": 2201,
      "Ġrequired": 2202,
      "Ġreceive": 2203,
      "idd": 2204,
      "mato": 2205,
      "Ġfrag": 2206,
      "Ġfix": 2207,
      "Ġwhen": 2208,
      "ating": 2209,
      "ital": 2210,
      "itoch": 2211,
      "labels": 2212,
      "Ġdays": 2213,
      "ourney": 2214,
      "Ġvs": 2215,
      "Ġbug": 2216,
      "Ġbench": 2217,
      "Ġcumin": 2218,
      "ickets": 2219,
      "Ġem": 2220,
      "Ġear": 2221,
      "Ġthan": 2222,
      "arts": 2223,
      "arlic": 2224,
      "olog": 2225,
      "Ġtok": 2226,
      "uestions": 2227,
      "etrie": 2228,
      "ized": 2229,
      "gelog": 2230,
      "ĠTickets": 2231,
      "ĠOK": 2232,
      "Ġmer": 2233,
      "Ġmuch": 2234,
      "Ġmitoch": 2235,
      "ĠLab": 2236,
      "ĠLAB": 2237,
      "ight": 2238,
      "Ġwithout": 2239,
      "Ġstd": 2240,
      "Ġstart": 2241,
      "ĠAd": 2242,
      "ĠApple": 2243,
      "mark": 2244,
      "Ġusage": 2245,
      "Ġcontext": 2246,
      "Ġone": 2247,
      "ĠParame": 2248,
      "ĠPrice": 2249,
      "Ġ316": 2250,
      "Ġ300": 2251,
      "ĠQuestions": 2252,
      "Ġdeco": 2253,
      "Ġshares": 2254,
      "Ġ179": 2255,
      "Ġ132": 2256,
      "Ġmeth": 2257,
      "ĠRank": 2258,
      "ĠRoug": 2259,
      "Ġ255": 2260,
      "Ġ245": 2261,
      "ĠReference": 2262,
      "Ġjust": 2263,
      "Ġjourney": 2264,
      "Ġ400": 2265,
      "Ġ429": 2266,
      "022": 2267,
      "ĠSCH": 2268,
      "ĠSecur": 2269,
      "ĠSpecial": 2270,
      "play": 2271,
      "ughly": 2272,
      "uth": 2273,
      "Ġunits": 2274,
      "Ġunav": 2275,
      "Ġkm": 2276,
      "Ġprote": 2277,
      "Ġprovide": 2278,
      "hangelog": 2279,
      "Ġhttps": 2280,
      "Ġyour": 2281,
      "ĠNo": 2282,
      "immer": 2283,
      "503": 2284,
      "508": 2285,
      "actor": 2286,
      "ods": 2287,
      "ther": 2288,
      "Ġcontrast": 2289,
      "ponent": 2290,
      "pped": 2291,
      "ĠIngred": 2292,
      "ulary": 2293,
      "Ġtech": 2294,
      "ĠHe": 2295,
      "ĠHow": 2296,
      "Ġdifferent": 2297,
      "Ġplans": 2298,
      "Ġranking": 2299,
      "000": 2300,
      "0078": 2301,
      "0033": 2302,
      "0010": 2303,
      "document": 2304,
      "Ġ744": 2305,
      "Ġ768": 2306,
      "Ġattend": 2307,
      "ĠCan": 2308,
      "ĠChangelog": 2309,
      "Ġexpect": 2310,
      "puted": 2311,
      "Ġgly": 2312,
      "Ġghee": 2313,
      "Ġgarlic": 2314,
      "Ġroughly": 2315,
      "Ġoil": 2316,
      "078": 2317,
      "184": 2318,
      "Ġ->": 2319,
      "385": 2320,
      "759": 2321,
      "090": 2322,
      "141": 2323,
      "786": 2324,
      "ĠGo": 2325,
      "ĠGET": 2326,
      "221": 2327,
      "Ġsee": 2328,
      "Ġsegment": 2329,
      "project": 2330,
      "ĠEndpoint": 2331,
      "Ġstring": 2332,
      "Ġstructured": 2333,
      "ients": 2334,
      "ĠWh": 2335,
      "Ġrace": 2336,
      "Ġmat": 2337,
      "Ġmax": 2338,
      "Ġresponse": 2339,
      "schema": 2340,
      "ĠYou": 2341,
      "Ġaccept": 2342,
      "Ġprediction": 2343,
      "ĠURL": 2344,
      "Ġ503": 2345,
      "stem": 2346,
      "pholog": 2347,
      "Ġdoes": 2348,
      "Ġencoding": 2349,
      "Ġtrained": 2350,
      "Ġcompared": 2351,
      "Ġreranker": 2352,
      "ysis": 2353,
      "Ġpri": 2354,
      "Ġprint": 2355,
      "Ġdiscount": 2356,
      "Ġcondition": 2357,
      "Ġconditions": 2358,
      "Ġconsens": 2359,
      "Ġnumbers": 2360,
      "Ġparameter": 2361,
      "ĠSchema": 2362,
      "\"])": 2363,
      "system": 2364,
      "Ġimport": 2365,
      "Ġcapital": 2366,
      "Ġlanding": 2367,
      "Ġrefres": 2368,
      "Ġdeparts": 2369,
      "other": 2370,
      "Ġmorpholog": 2371,
      "Ġrepresent": 2372,
      "ĠSettings": 2373,
      "gramming": 2374,
      "Ġturmeric": 2375,
      "requent": 2376,
      "Ġpath": 2377,
      "Ġlimit": 2378,
      "Ġfragment": 2379,
      "Ġbenchmark": 2380,
      "Ġearly": 2381,
      "etrieval": 2382,
      "Ġmitochondr": 2383,
      "ĠLabels": 2384,
      "ĠLABELS": 2385,
      "ĠParameters": 2386,
      "ĠPrices": 2387,
      "Ġmethods": 2388,
      "ĠRoughly": 2389,
      "ĠSCHEMA": 2390,
      "ĠSecurity": 2391,
      "Ġunavailable": 2392,
      "ĠIngredients": 2393,
      "Ġconsensus": 2394,
      "!!": 2395,
      "\"{": 2396,
      "\"):": 2397,
      "${": 2398,
      "%.": 2399,
      "'re": 2400,
      "'ll": 2401,
      "(`": 2402,
      "().": 2403,
      ")}": 2404,
      "-...\"": 2405,
      "/{": 2406,
      "0026": 2407,
      "032": 2408,
      "039": 2409,
      "037": 2410,
      "036": 2411,
      "150": 2412,
      "101": 2413,
      "135": 2414,
      "131": 2415,
      "142": 2416,
      "175": 2417,
      "1042": 2418,
      "279": 2419,
      "212": 2420,
      "335": 2421,
      "347": 2422,
      "479": 2423,
      "468": 2424,
      "419": 2425,
      "414": 2426,
      "535": 2427,
      "5786": 2428,
      "679": 2429,
      "655": 2430,
      "631": 2431,
      "639": 2432,
      "646": 2433,
      "656": 2434,
      "677": 2435,
      "657": 2436,
      "7326": 2437,
      "807": 2438,
      "878": 2439,
      "856": 2440,
      "848": 2441,
      "826": 2442,
      "915": 2443,
      "931": 2444,
      "958": 2445,
      "972": 2446,
      "930": 2447,
      "926": 2448,
      ":.": 2449,
      "AD": 2450,
      "AQ": 2451,
      "CT": 2452,
      "Case": 2453,
      "Ds": 2454,
      "ECT": 2455,
      "LECT": 2456,
      "OST": 2457,
      "OOL": 2458,
      "PE": 2459,
      "TOOL": 2460,
      "UM": 2461,
      "UN": 2462,
      "UR": 2463,
      "USD": 2464,
      "[:": 2465,
      "`);": 2466,
      "aut": 2467,
      "aging": 2468,
      "ave": 2469,
      "aste": 2470,
      "aled": 2471,
      "aking": 2472,
      "ages": 2473,
      "aerobic": 2474,
      "bre": 2475,
      "bra": 2476,
      "base": 2477,
      "bos": 2478,
      "cle": 2479,
      "cal": 2480,
      "cing": 2481,
      "col": 2482,
      "card": 2483,
      "ccount": 2484,
      "did": 2485,
      "dit": 2486,
      "des": 2487,
      "dia": 2488,
      "down": 2489,
      "eh": 2490,
      "ew": 2491,
      "eos": 2492,
      "fit": 2493,
      "gi": 2494,
      "gs": 2495,
      "gor": 2496,
      "gist": 2497,
      "gth": 2498,
      "ground": 2499,
      "ganel": 2500,
      "hing": 2501,
      "ima": 2502,
      "ily": 2503,
      "imple": 2504,
      "iel": 2505,
      "jor": 2506,
      "lus": 2507,
      "lse": 2508,
      "lash": 2509,
      "mp": 2510,
      "mal": 2511,
      "ner": 2512,
      "ness": 2513,
      "nect": 2514,
      "nical": 2515,
      "night": 2516,
      "nother": 2517,
      "ox": 2518,
      "oss": 2519,
      "py": 2520,
      "ped": 2521,
      "pted": 2522,
      "pad": 2523,
      "press": 2524,
      "ru": 2525,
      "sing": 2526,
      "side": 2527,
      "sked": 2528,
      "sistent": 2529,
      "sible": 2530,
      "ta": 2531,
      "ting": 2532,
      "uctions": 2533,
      "ves": 2534,
      "wo": 2535,
      "xid": 2536,
      "ying": 2537,
      "year": 2538,
      "||": 2539,
      "}&": 2540,
      "}:": 2541,
      "Â°": 2542,
      "ÃĹ": 2543,
      "Ġ*": 2544,
      "Ġ:": 2545,
      "Ġ~": 2546,
      "Ġstra": 2547,
      "ĠDe": 2548,
      "ĠDo": 2549,
      "Ġrin": 2550,
      "Ġmain": 2551,
      "Ġ],": 2552,
      "Ġup": 2553,
      "eries": 2554,
      "ercard": 2555,
      "Ġ[\"": 2556,
      "SELECT": 2557,
      "init": 2558,
      "Ġahe": 2559,
      "Ġaerobic": 2560,
      "Ġauth": 2561,
      "stima": 2562,
      "Ġtot": 2563,
      "Ġtask": 2564,
      "Ġtbs": 2565,
      "Ġtesla": 2566,
      "Ġtaste": 2567,
      "ormal": 2568,
      "ROM": 2569,
      "ength": 2570,
      "lect": 2571,
      "lease": 2572,
      "ance": 2573,
      "Ġcol": 2574,
      "Ġcode": 2575,
      "Ġcard": 2576,
      "Ġcorpus": 2577,
      "Ġsign": 2578,
      "Ġsize": 2579,
      "Ġslow": 2580,
      "Ġsimmer": 2581,
      "tegist": 2582,
      "reen": 2583,
      "rely": 2584,
      "research": 2585,
      "ason": 2586,
      "ropped": 2587,
      "ceed": 2588,
      "Ġanaerobic": 2589,
      "alfor": 2590,
      "Ġpun": 2591,
      "Ġperson": 2592,
      "Ġpie": 2593,
      "Ġplus": 2594,
      "Ġposs": 2595,
      "Ġincon": 2596,
      "Ġinput": 2597,
      "Ġinclu": 2598,
      "Ġinste": 2599,
      "Ġlate": 2600,
      "Ġlength": 2601,
      "Ġthem": 2602,
      "Ġthese": 2603,
      "Ġtheir": 2604,
      "Ġrefer": 2605,
      "Ġretr": 2606,
      "Ġredi": 2607,
      "Ġretrain": 2608,
      "ids": 2609,
      "ingual": 2610,
      "max": 2611,
      "Ġfet": 2612,
      "Ġflo": 2613,
      "Ġfine": 2614,
      "Ġfree": 2615,
      "Ġflow": 2616,
      "Ġfam": 2617,
      "Ġfiel": 2618,
      "Ġfox": 2619,
      "Ġfru": 2620,
      "isa": 2621,
      "ised": 2622,
      "atch": 2623,
      "ative": 2624,
      "iting": 2625,
      "Ġnormal": 2626,
      "eset": 2627,
      "laying": 2628,
      "Ġdes": 2629,
      "Ġdot": 2630,
      "Ġdue": 2631,
      "Ġdash": 2632,
      "Ġdropped": 2633,
      "edu": 2634,
      "quest": 2635,
      "Ġver": 2636,
      "Ġvide": 2637,
      "Ġbro": 2638,
      "Ġback": 2639,
      "Ġbank": 2640,
      "Ġbatch": 2641,
      "Ġcup": 2642,
      "Ġcups": 2643,
      "ick": 2644,
      "icles": 2645,
      "Ġearn": 2646,
      "Ġelse": 2647,
      "Ġestima": 2648,
      "Ġthen": 2649,
      "Ġthere": 2650,
      "ards": 2651,
      "arkets": 2652,
      "olgi": 2653,
      "Ġtoor": 2654,
      "Ġtomato": 2655,
      "dam": 2656,
      "ĠThan": 2657,
      "ĠTesla": 2658,
      "ately": 2659,
      "offs": 2660,
      "Ġmul": 2661,
      "Ġmidd": 2662,
      "Ġmalfor": 2663,
      "Ġregards": 2664,
      "Ġoff": 2665,
      "ithms": 2666,
      "Ġwithin": 2667,
      "Ġste": 2668,
      "Ġstaging": 2669,
      "ĠAfter": 2670,
      "ĠAmeric": 2671,
      "ĠAccount": 2672,
      "ĠAnother": 2673,
      "ĠAsked": 2674,
      "ĠAdam": 2675,
      "mary": 2676,
      "Ġconf": 2677,
      "Ġconst": 2678,
      "Ġconsum": 2679,
      "Ġonion": 2680,
      "ĠPassword": 2681,
      "ĠPOST": 2682,
      "ĠPlease": 2683,
      "Ġ335": 2684,
      "Ġ331": 2685,
      "Ġ344": 2686,
      "Ġ309": 2687,
      "Ġ346": 2688,
      "Ġ399": 2689,
      "Ġ330": 2690,
      "Ġ361": 2691,
      "Ġ351": 2692,
      "Ġ387": 2693,
      "Ġlogin": 2694,
      "Ġshown": 2695,
      "Ġnothing": 2696,
      "Ġ116": 2697,
      "Ġ101": 2698,
      "Ġ115": 2699,
      "Ġ135": 2700,
      "Ġ144": 2701,
      "Ġ158": 2702,
      "Ġ107": 2703,
      "Ġ149": 2704,
      "Ġ175": 2705,
      "Ġ172": 2706,
      "Ġ178": 2707,
      "Ġ199": 2708,
      "Ġ133": 2709,
      "iable": 2710,
      "ĠRespon": 2711,
      "ĠRetrieval": 2712,
      "Ġvalue": 2713,
      "orylation": 2714,
      "Ġ200": 2715,
      "Ġ235": 2716,
      "Ġ248": 2717,
      "Ġ298": 2718,
      "Ġ254": 2719,
      "ĠRecipe": 2720,
      "Ġreplaying": 2721,
      "Ġjum": 2722,
      "Ġ406": 2723,
      "Ġ401": 2724,
      "Ġ435": 2725,
      "Ġ447": 2726,
      "Ġ442": 2727,
      "021": 2728,
      "027": 2729,
      "ĠSalt": 2730,
      "ĠSUM": 2731,
      "ĠSimple": 2732,
      "ĠIf": 2733,
      "ĠIs": 2734,
      "ĠIt": 2735,
      "ĠIDs": 2736,
      "061": 2737,
      "063": 2738,
      "065": 2739,
      "Ġ639": 2740,
      "Ġ620": 2741,
      "Ġ688": 2742,
      "gular": 2743,
      "ives": 2744,
      "pty": 2745,
      "166": 2746,
      "Ġspam": 2747,
      "Ġprose": 2748,
      "Ġproduction": 2749,
      "cose": 2750,
      "Ġcredit": 2751,
      "Ġcurr": 2752,
      "Ġalone": 2753,
      "Ġalgor": 2754,
      "Ġhard": 2755,
      "Ġhits": 2756,
      "Ġhave": 2757,
      "Ġchange": 2758,
      "Ġyet": 2759,
      "Ġcomputed": 2760,
      "ĠNote": 2761,
      "ĠNotes": 2762,
      "Ġeveryone": 2763,
      "Ġavailable": 2764,
      "ending": 2765,
      "Ġbeat": 2766,
      "ponsible": 2767,
      "pply": 2768,
      "Ġcandid": 2769,
      "Ġoutplay": 2770,
      "Ġoutside": 2771,
      "ĠFixed": 2772,
      "ĠFrequent": 2773,
      "ĠFAQ": 2774,
      "ĠFROM": 2775,
      "duct": 2776,
      "ĠInstr": 2777,
      "ĠInstall": 2778,
      "ĠIndia": 2779,
      "Ġrank": 2780,
      "Ġexact": 2781,
      "Ġexponent": 2782,
      "Ġexceed": 2783,
      "005": 2784,
      "0002": 2785,
      "0006": 2786,
      "0016": 2787,
      "0050": 2788,
      "0001": 2789,
      "0015": 2790,
      "0079": 2791,
      "0032": 2792,
      "0035": 2793,
      "0047": 2794,
      "0055": 2795,
      "0031": 2796,
      "0004": 2797,
      "0044": 2798,
      "0058": 2799,
      "0007": 2800,
      "0012": 2801,
      "0039": 2802,
      "0018": 2803,
      "0042": 2804,
      "0037": 2805,
      "0038": 2806,
      "0049": 2807,
      "0075": 2808,
      "0019": 2809,
      "0008": 2810,
      "0009": 2811,
      "0005": 2812,
      "0046": 2813,
      "0072": 2814,
      "0014": 2815,
      "0045": 2816,
      "0036": 2817,
      "0056": 2818,
      "0099": 2819,
      "0048": 2820,
      "0011": 2821,
      "0098": 2822,
      "0034": 2823,
      "0030": 2824,
      "0070": 2825,
      "0077": 2826,
      "0013": 2827,
      "0017": 2828,
      "0053": 2829,
      "0040": 2830,
      "0054": 2831,
      "0057": 2832,
      "0043": 2833,
      "0051": 2834,
      "0052": 2835,
      "0071": 2836,
      "0076": 2837,
      "0059": 2838,
      "0074": 2839,
      "0041": 2840,
      "0073": 2841,
      "0003": 2842,
      "cycle": 2843,
      "Ġids": 2844,
      "ĠExpress": 2845,
      "Ġ002": 2846,
      "Ġâĩ": 2847,
      "010": 2848,
      "011": 2849,
      "0100": 2850,
      "0115": 2851,
      "0132": 2852,
      "0156": 2853,
      "Ġcontain": 2854,
      "Ġidentifiers": 2855,
      "Ġclick": 2856,
      "response": 2857,
      "Ġ928": 2858,
      "ĠCI": 2859,
      "ĠCon": 2860,
      "ĠCPU": 2861,
      "Ġ512": 2862,
      "Ġexport": 2863,
      "Ġ122": 2864,
      "Ġ125": 2865,
      "Ġ127": 2866,
      "Ġ129": 2867,
      "1598": 2868,
      "Ġgot": 2869,
      "Ġglu": 2870,
      "Ġgreen": 2871,
      "eneral": 2872,
      "Ġrice": 2873,
      "Ġobserv": 2874,
      "Ġown": 2875,
      "Ġoxid": 2876,
      "Ġfrost": 2877,
      "323": 2878,
      "325": 2879,
      "327": 2880,
      "357": 2881,
      "3529": 2882,
      "tilingual": 2883,
      "3196": 2884,
      "ĠMast": 2885,
      "ĠMarkets": 2886,
      "044": 2887,
      "048": 2888,
      "ĠBY": 2889,
      "ĠBest": 2890,
      "ĠBPE": 2891,
      "446": 2892,
      "581": 2893,
      "osph": 2894,
      "Ġtrue": 2895,
      "Ġtrial": 2896,
      "120": 2897,
      "126": 2898,
      "128": 2899,
      "------": 2900,
      "180": 2901,
      "186": 2902,
      "3705": 2903,
      "381": 2904,
      "495": 2905,
      "4978": 2906,
      "687": 2907,
      "Ġhey": 2908,
      "Ġfinally": 2909,
      "080": 2910,
      "084": 2911,
      "085": 2912,
      "086": 2913,
      "088": 2914,
      "093": 2915,
      "096": 2916,
      "098": 2917,
      "056": 2918,
      "463": 2919,
      "724": 2920,
      "727": 2921,
      "7248": 2922,
      "ĠVisa": 2923,
      "140": 2924,
      "1415": 2925,
      "Ġ151": 2926,
      "Ġ152": 2927,
      "Ġ159": 2928,
      "Ġ164": 2929,
      "ĠGolgi": 2930,
      "367": 2931,
      "ckets": 2932,
      "Ġ110": 2933,
      "Ġ141": 2934,
      "Ġ143": 2935,
      "999": 2936,
      "Ġsem": 2937,
      "Ġsecre": 2938,
      "Ġseason": 2939,
      "ĠDal": 2940,
      "0060": 2941,
      "0061": 2942,
      "0062": 2943,
      "0063": 2944,
      "0064": 2945,
      "0065": 2946,
      "0066": 2947,
      "0067": 2948,
      "0068": 2949,
      "0069": 2950,
      "0080": 2951,
      "0081": 2952,
      "0082": 2953,
      "0083": 2954,
      "0084": 2955,
      "0085": 2956,
      "0086": 2957,
      "0087": 2958,
      "0088": 2959,
      "0089": 2960,
      "Ġplays": 2961,
      "Ġplayer": 2962,
      "Ġplaying": 2963,
      "Ġplayed": 2964,
      "Ġplayoff": 2965,
      "Ġplaybook": 2966,
      "Ġplayground": 2967,
      "Ġplayoffs": 2968,
      "0020": 2969,
      "0021": 2970,
      "0022": 2971,
      "0023": 2972,
      "0024": 2973,
      "0025": 2974,
      "0027": 2975,
      "0028": 2976,
      "0029": 2977,
      "176": 2978,
      "Ġ171": 2979,
      "process": 2980,
      "tokens": 2981,
      "0090": 2982,
      "0091": 2983,
      "0092": 2984,
      "0093": 2985,
      "0094": 2986,
      "0095": 2987,
      "0096": 2988,
      "0097": 2989,
      "Ġ103": 2990,
      "ĠRETRIEVAL": 2991,
      "...": 2992,
      "url": 2993,
      "7118": 2994,
      "764": 2995,
      "2419": 2996,
      "8973": 2997,
      "ĠWould": 2998,
      "Ġrather": 2999,
      "ĠProgramming": 3000,
      "--------------": 3001,
      "RETRIEVAL": 3002,
      "Ġmay": 3003,
      "Ġmajor": 3004,
      "Ġprompts": 3005,
      "RANK": 3006,
      "Ġreset": 3007,
      "Ġresponsible": 3008,
      "Ġorganel": 3009,
      "Ġrunt": 3010,
      "Ġ</": 3011,
      "Ġ<<": 3012,
      "Ġ390": 3013,
      "ĠUn": 3014,
      "ĠUPI": 3015,
      "ĠUSD": 3016,
      "Ġvectors": 3017,
      "ĠThis": 3018,
      "ĠâĪļ": 3019,
      "ĠÂ°": 3020,
      "Ġ001": 3021,
      "Ġ003": 3022,
      "Ġencode": 3023,
      "Ġcompute": 3024,
      "Ġhelp": 3025,
      "Ġpredictive": 3026,
      "Ġpredictability": 3027,
      "Ġ---------": 3028,
      "Ġ------------": 3029,
      "Ġ----------------------": 3030,
      "Ġarra": 3031,
      "Ġtransfor": 3032,
      "Ġtransport": 3033,
      "retrieval": 3034,
      "ctuation": 3035,
      "Ġmustard": 3036,
      "Ġconsistent": 3037,
      "Ġcomputing": 3038,
      "ĠWeek": 3039,
      "Ġability": 3040,
      "encode": 3041,
      "encoder": 3042,
      "Ġfirst": 3043,
      "Ġfirms": 3044,
      "Ġnumber": 3045,
      "Ġparameters": 3046,
      "Ġproduced": 3047,
      "Ġproducing": 3048,
      "Ġsmaller": 3049,
      "Ġanalyz": 3050,
      "Ġanalytical": 3051,
      "7191": 3052,
      "Ġ./": 3053,
      "Ġoverfit": 3054,
      "Ġchain": 3055,
      "Ġfolder": 3056,
      "Ġfollow": 3057,
      "Ġvocabulary": 3058,
      "Ġplayfulness": 3059,
      "Ġarrive": 3060,
      "Ġarrives": 3061,
      "Ġcomputational": 3062,
      "Ġmolecule": 3063,
      "Ġmolecules": 3064,
      "Ġ\"...\"},": 3065,
      "ype": 3066,
      "áµ¢": 3067,
      "ĠÏĥ": 3068,
      "Ġorder": 3069,
      "Ġ================================": 3070,
      "level": 3071,
      "Ġannually": 3072,
      "Ġphosph": 3073,
      "Ġinflation": 3074,
      "Ġfixing": 3075,
      "Ġempty": 3076,
      "Ġmerges": 3077,
      "ĠAdded": 3078,
      "ĠRanker": 3079,
      "Ġproteins": 3080,
      "ĠHeat": 3081,
      "documents": 3082,
      "Ġexpectations": 3083,
      "Ġglycol": 3084,
      "Ġseeing": 3085,
      "ĠWhy": 3086,
      "ĠURLs": 3087,
      "Ġdoesn": 3088,
      "Ġprimary": 3089,
      "Ġcapitalization": 3090,
      "Ġrefresh": 3091,
      "Ġmorphological": 3092,
      "Ġrepresentations": 3093,
      "Ġpaths": 3094,
      "Ġmitochondria": 3095,
      "8564": 3096,
      "breaking": 3097,
      "sistently": 3098,
      "Ġstrategist": 3099,
      "ĠDear": 3100,
      "ĠDoes": 3101,
      "Ġrinsed": 3102,
      "Ġahead": 3103,
      "Ġtotal": 3104,
      "Ġtbsp": 3105,
      "Ġslowdown": 3106,
      "Ġpunctuation": 3107,
      "Ġpieces": 3108,
      "Ġpossible": 3109,
      "Ġinconsistently": 3110,
      "Ġincludes": 3111,
      "Ġinstead": 3112,
      "Ġretry": 3113,
      "Ġredirect": 3114,
      "Ġfetch": 3115,
      "Ġfloat": 3116,
      "Ġfamily": 3117,
      "Ġfield": 3118,
      "Ġfruit": 3119,
      "Ġvideo": 3120,
      "Ġbackoff": 3121,
      "Ġearnings": 3122,
      "Ġestimate": 3123,
      "ĠThank": 3124,
      "Ġmultilingual": 3125,
      "Ġmiddle": 3126,
      "Ġmalformed": 3127,
      "ĠAmerican": 3128,
      "Ġconsumer": 3129,
      "ĠResponse": 3130,
      "Ġalgorithms": 3131,
      "Ġoutplayed": 3132,
      "ĠFrequently": 3133,
      "ĠInstructions": 3134,
      "ĠInstallation": 3135,
      "Ġexponential": 3136,
      "Ġexceeded": 3137,
      "Ġglucose": 3138,
      "Ġoxidative": 3139,
      "ĠMastercard": 3140,
      "processing": 3141,
      "Ġorganelle": 3142,
      "ĠWeeknight": 3143,
      "Ġoverfitting": 3144,
      "Ġphosphorylation": 3145,
      "Ġglycolysis": 3146
    },
    "merges": [
      [
        "E",
        "N"
      ],
      [
        "EN",
        "D"
      ],
      [
        "e",
        "r"
      ],
      [
        "Ġ",
        "["
      ],
      [
        "S",
        "E"
      ],
      [
        "SE",
        "G"
      ],
      [
        "i",
        "n"
      ],
      [
        "Ġ",
        "a"
      ],
      [
        "s",
        "t"
      ],
      [
        "<",
        "|"
      ],
      [
        "|",
        ">"
      ],
      [
        "o",
        "n"
      ],
      [
        ".",
        "["
      ],
      [
        "Ġ",
        "t"
      ],
      [
        "o",
        "r"
      ],
      [
        "S",
        "T"
      ],
      [
        "R",
        "O"
      ],
      [
        "A",
        "R"
      ],
      [
        "RO",
        "L"
      ],
      [
        "ST",
        "AR"
      ],
      [
        "STAR",
        "T"
      ],
      [
        "ROL",
        "E"
      ],
      [
        "e",
        "n"
      ],
      [
        "]",
        "["
      ],
      [
        "l",
        "e"
      ],
      [
        "a",
        "n"
      ],
      [
        "Ġ",
        "c"
      ],
      [
        "Ġ",
        "<|"
      ],
      [
        "č",
        "Ċ"
      ],
      [
        "Ġ",
        "s"
      ],
      [
        "t",
        "e"
      ],
      [
        "r",
        "e"
      ],
      [
        "a",
        "s"
      ],
      [
        "r",
        "o"
      ],
      [
        "h",
        "e"
      ],
      [
        "u",
        "s"
      ],
      [
        "c",
        "e"
      ],
      [
        "r",
        "a"
      ],
      [
        "ro",
        "le"
      ],
      [
        "]",
        "<|"
      ],
      [
        "Ġa",
        "n"
      ],
      [
        "R",
        "A"
      ],
      [
        "i",
        "st"
      ],
      [
        "a",
        "l"
      ],
      [
        "Ġ",
        "p"
      ],
      [
        "er",
        "s"
      ],
      [
        "O",
        "C"
      ],
      [
        "RA",
        "G"
      ],
      [
        "D",
        "OC"
      ],
      [
        "Ġ",
        "in"
      ],
      [
        "Ġ",
        "l"
      ],
      [
        "o",
        "u"
      ],
      [
        "Ġt",
        "he"
      ],
      [
        "Ġ",
        "re"
      ],
      [
        "an",
        "t"
      ],
      [
        "i",
        "d"
      ],
      [
        "in",
        "g"
      ],
      [
        "m",
        "a"
      ],
      [
        "i",
        "on"
      ],
      [
        "Ġ",
        "f"
      ],
      [
        "i",
        "s"
      ],
      [
        "as",
        "s"
      ],
      [
        "us",
        "er"
      ],
      [
        "in",
        "t"
      ],
      [
        "ist",
        "ant"
      ],
      [
        "ass",
        "istant"
      ],
      [
        "A",
        "L"
      ],
      [
        "O",
        "B"
      ],
      [
        "G",
        "L"
      ],
      [
        "OB",
        "AL"
      ],
      [
        "GL",
        "OBAL"
      ],
      [
        "Ġ",
        "w"
      ],
      [
        "o",
        "m"
      ],
      [
        "Ġ",
        "čĊ"
      ],
      [
        "a",
        "t"
      ],
      [
        "c",
        "on"
      ],
      [
        "i",
        "t"
      ],
      [
        "Ġ",
        "n"
      ],
      [
        "e",
        "s"
      ],
      [
        "Ġan",
        "d"
      ],
      [
        "l",
        "a"
      ],
      [
        "or",
        "d"
      ],
      [
        "Ġ",
        "d"
      ],
      [
        "ou",
        "r"
      ],
      [
        "our",
        "ce"
      ],
      [
        "e",
        "d"
      ],
      [
        "q",
        "u"
      ],
      [
        "st",
        "ra"
      ],
      [
        "stra",
        "int"
      ],
      [
        "con",
        "straint"
      ],
      [
        "i",
        "te"
      ],
      [
        "Ġ",
        "v"
      ],
      [
        "Ġ",
        "b"
      ],
      [
        "c",
        "t"
      ],
      [
        "Ġc",
        "u"
      ],
      [
        "s",
        "ource"
      ],
      [
        "or",
        "t"
      ],
      [
        "st",
        "om"
      ],
      [
        "Ġ",
        "qu"
      ],
      [
        "i",
        "c"
      ],
      [
        "m",
        "e"
      ],
      [
        "'",
        "s"
      ],
      [
        "Ġ",
        "e"
      ],
      [
        "en",
        "t"
      ],
      [
        "Ġt",
        "h"
      ],
      [
        "er",
        "e"
      ],
      [
        "a",
        "r"
      ],
      [
        "i",
        "g"
      ],
      [
        "Ġcu",
        "stom"
      ],
      [
        "H",
        "ere"
      ],
      [
        "o",
        "t"
      ],
      [
        "o",
        "l"
      ],
      [
        "Ġt",
        "o"
      ],
      [
        "u",
        "m"
      ],
      [
        "Ġ",
        "is"
      ],
      [
        "u",
        "e"
      ],
      [
        "d",
        "a"
      ],
      [
        "e",
        "t"
      ],
      [
        "d",
        "e"
      ],
      [
        "Ġl",
        "o"
      ],
      [
        "ct",
        "ion"
      ],
      [
        "o",
        "c"
      ],
      [
        "ord",
        "ers"
      ],
      [
        "i",
        "z"
      ],
      [
        "g",
        "e"
      ],
      [
        "x",
        "t"
      ],
      [
        "p",
        "le"
      ],
      [
        "Ġ",
        "T"
      ],
      [
        "en",
        "ce"
      ],
      [
        "a",
        "te"
      ],
      [
        "f",
        "er"
      ],
      [
        "Ġ",
        "O"
      ],
      [
        "l",
        "y"
      ],
      [
        "o",
        "f"
      ],
      [
        "er",
        "y"
      ],
      [
        "u",
        "n"
      ],
      [
        "c",
        "h"
      ],
      [
        "Ġf",
        "or"
      ],
      [
        "Ġ",
        "m"
      ],
      [
        "Ġ",
        "L"
      ],
      [
        "Ġp",
        "ol"
      ],
      [
        "v",
        "en"
      ],
      [
        "Ġre",
        "g"
      ],
      [
        "as",
        "e"
      ],
      [
        "da",
        "y"
      ],
      [
        "Ġ",
        "of"
      ],
      [
        "it",
        "h"
      ],
      [
        "ig",
        "h"
      ],
      [
        "Ġw",
        "ith"
      ],
      [
        "Ġ",
        "st"
      ],
      [
        "Ġth",
        "is"
      ],
      [
        "k",
        "s"
      ],
      [
        "Ġ",
        "A"
      ],
      [
        "h",
        "i"
      ],
      [
        "Ġcustom",
        "ers"
      ],
      [
        "Ġ",
        "orders"
      ],
      [
        "de",
        "x"
      ],
      [
        "ma",
        "r"
      ],
      [
        "Ġ",
        "us"
      ],
      [
        "i",
        "l"
      ],
      [
        "Ġs",
        "c"
      ],
      [
        "Ġc",
        "on"
      ],
      [
        "Ġl",
        "ist"
      ],
      [
        "Ġp",
        "a"
      ],
      [
        "l",
        "o"
      ],
      [
        "Ġd",
        "oc"
      ],
      [
        "m",
        "ple"
      ],
      [
        "Ġ",
        "on"
      ],
      [
        "e",
        "p"
      ],
      [
        "Ġ",
        "P"
      ],
      [
        "in",
        "ing"
      ],
      [
        "t",
        "er"
      ],
      [
        "\"",
        ":"
      ],
      [
        "at",
        "ion"
      ],
      [
        "o",
        "int"
      ],
      [
        "s",
        "e"
      ],
      [
        "Ġ",
        "en"
      ],
      [
        "it",
        "y"
      ],
      [
        "ma",
        "il"
      ],
      [
        "Ġe",
        "mail"
      ],
      [
        "Ġ",
        "3"
      ],
      [
        "he",
        "ma"
      ],
      [
        "a",
        "p"
      ],
      [
        "Ġlo",
        "g"
      ],
      [
        "Ġsc",
        "hema"
      ],
      [
        "r",
        "an"
      ],
      [
        "fer",
        "ence"
      ],
      [
        "Ġ",
        "Q"
      ],
      [
        "n",
        "al"
      ],
      [
        "Ġd",
        "e"
      ],
      [
        "ĠT",
        "he"
      ],
      [
        "ven",
        "ue"
      ],
      [
        "Ġcustom",
        "er"
      ],
      [
        "e",
        "ep"
      ],
      [
        "Ġs",
        "ort"
      ],
      [
        "Ġqu",
        "ery"
      ],
      [
        "in",
        "ate"
      ],
      [
        "te",
        "xt"
      ],
      [
        "Ġc",
        "la"
      ],
      [
        "p",
        "oint"
      ],
      [
        "con",
        "text"
      ],
      [
        "Ġt",
        "ra"
      ],
      [
        "Ġs",
        "h"
      ],
      [
        "f",
        "t"
      ],
      [
        "ra",
        "ft"
      ],
      [
        "Ġpol",
        "ite"
      ],
      [
        "al",
        "t"
      ],
      [
        "Ġn",
        "ot"
      ],
      [
        "Ġ",
        "1"
      ],
      [
        "en",
        "alt"
      ],
      [
        "Ġp",
        "enalt"
      ],
      [
        "Ġpenalt",
        "y"
      ],
      [
        "c",
        "ase"
      ],
      [
        "Ġw",
        "or"
      ],
      [
        "o",
        "p"
      ],
      [
        "Ġwor",
        "st"
      ],
      [
        "um",
        "mar"
      ],
      [
        "v",
        "er"
      ],
      [
        "l",
        "an"
      ],
      [
        "a",
        "ma"
      ],
      [
        "Ġan",
        "y"
      ],
      [
        "r",
        "ite"
      ],
      [
        "Ġa",
        "s"
      ],
      [
        "Ġin",
        "dex"
      ],
      [
        "i",
        "es"
      ],
      [
        "E",
        "x"
      ],
      [
        "i",
        "a"
      ],
      [
        "h",
        "at"
      ],
      [
        "w",
        "er"
      ],
      [
        "y",
        "ama"
      ],
      [
        "Ġ",
        "K"
      ],
      [
        "as",
        "hi"
      ],
      [
        "ashi",
        "yama"
      ],
      [
        "Ġv",
        "ia"
      ],
      [
        "y",
        "ot"
      ],
      [
        "ĠK",
        "yot"
      ],
      [
        "ĠKyot",
        "o"
      ],
      [
        "Ġ",
        "me"
      ],
      [
        "un",
        "ction"
      ],
      [
        "Ġ",
        "R"
      ],
      [
        "Ġf",
        "unction"
      ],
      [
        "Ġl",
        "a"
      ],
      [
        "Ġv",
        "al"
      ],
      [
        "r",
        "or"
      ],
      [
        "Ġan",
        "om"
      ],
      [
        "Ġanom",
        "al"
      ],
      [
        "Ġval",
        "id"
      ],
      [
        "er",
        "ge"
      ],
      [
        "Ġqu",
        "ic"
      ],
      [
        "ks",
        "ort"
      ],
      [
        "Ġquic",
        "ksort"
      ],
      [
        "or",
        "y"
      ],
      [
        "m",
        "ory"
      ],
      [
        "as",
        "k"
      ],
      [
        "me",
        "mory"
      ],
      [
        "t",
        "ask"
      ],
      [
        "ers",
        "on"
      ],
      [
        "erson",
        "a"
      ],
      [
        "p",
        "ersona"
      ],
      [
        "Ġ",
        "2"
      ],
      [
        ",",
        "\""
      ],
      [
        "ĠR",
        "e"
      ],
      [
        "te",
        "d"
      ],
      [
        "Ġre",
        "p"
      ],
      [
        "v",
        "al"
      ],
      [
        "Ġ",
        "j"
      ],
      [
        "Ġ",
        "4"
      ],
      [
        "val",
        "ue"
      ],
      [
        "Ġj",
        "o"
      ],
      [
        "a",
        "mple"
      ],
      [
        "0",
        "2"
      ],
      [
        "iz",
        "ation"
      ],
      [
        "Ġcon",
        "t"
      ],
      [
        "i",
        "f"
      ],
      [
        "m",
        "d"
      ],
      [
        "a",
        "d"
      ],
      [
        "Ġ",
        "S"
      ],
      [
        "i",
        "k"
      ],
      [
        "Ġ",
        "I"
      ],
      [
        "um",
        "ent"
      ],
      [
        "Ġdoc",
        "ument"
      ],
      [
        "m",
        "ent"
      ],
      [
        "p",
        "la"
      ],
      [
        "0",
        "6"
      ],
      [
        "Ġ",
        "6"
      ],
      [
        "g",
        "u"
      ],
      [
        "i",
        "v"
      ],
      [
        "u",
        "g"
      ],
      [
        "02",
        "6"
      ],
      [
        "u",
        "t"
      ],
      [
        "Ġ",
        "un"
      ],
      [
        "s",
        "or"
      ],
      [
        "u",
        "al"
      ],
      [
        "Ex",
        "pla"
      ],
      [
        "Expla",
        "in"
      ],
      [
        "p",
        "t"
      ],
      [
        "id",
        "e"
      ],
      [
        "a",
        "re"
      ],
      [
        "1",
        "6"
      ],
      [
        "c",
        "ord"
      ],
      [
        "Ġ2",
        "026"
      ],
      [
        "e",
        "st"
      ],
      [
        "k",
        "en"
      ],
      [
        "w",
        "ik"
      ],
      [
        "Ġ",
        "k"
      ],
      [
        "Ġs",
        "p"
      ],
      [
        "Ġin",
        "ter"
      ],
      [
        "it",
        "ion"
      ],
      [
        "wik",
        "i"
      ],
      [
        "Ġinter",
        "nal"
      ],
      [
        "O",
        "N"
      ],
      [
        "Ġp",
        "ro"
      ],
      [
        "Ġon",
        "ly"
      ],
      [
        "o",
        "te"
      ],
      [
        "Ġ",
        "/"
      ],
      [
        "b",
        "s"
      ],
      [
        "Ġs",
        "u"
      ],
      [
        "iv",
        "e"
      ],
      [
        "c",
        "o"
      ],
      [
        ")",
        ";"
      ],
      [
        "i",
        "ce"
      ],
      [
        "ate",
        "d"
      ],
      [
        "Ġa",
        "ct"
      ],
      [
        "Ġc",
        "re"
      ],
      [
        "ap",
        "i"
      ],
      [
        "d",
        "point"
      ],
      [
        "Ġcu",
        "r"
      ],
      [
        "o",
        "de"
      ],
      [
        "ran",
        "s"
      ],
      [
        "Ġcre",
        "ated"
      ],
      [
        ")",
        ".["
      ],
      [
        "q",
        "l"
      ],
      [
        "s",
        "ql"
      ],
      [
        "Ġpa",
        "g"
      ],
      [
        "Ġdoc",
        "s"
      ],
      [
        "Ġcur",
        "sor"
      ],
      [
        "Ġen",
        "dpoint"
      ],
      [
        "y",
        "le"
      ],
      [
        "Ġact",
        "ive"
      ],
      [
        "Ġst",
        "yle"
      ],
      [
        "ode",
        "l"
      ],
      [
        "h",
        "an"
      ],
      [
        "o",
        "ice"
      ],
      [
        "re",
        "fer"
      ],
      [
        "Ġv",
        "oice"
      ],
      [
        "ĠP",
        "refer"
      ],
      [
        "Ġemail",
        "s"
      ],
      [
        "gu",
        "ide"
      ],
      [
        "b",
        "ug"
      ],
      [
        "Ġto",
        "ken"
      ],
      [
        "Ġm",
        "odel"
      ],
      [
        "\"",
        ",\""
      ],
      [
        "\":",
        "\""
      ],
      [
        "op",
        "ic"
      ],
      [
        "a",
        "c"
      ],
      [
        "Ġa",
        "l"
      ],
      [
        "Ġ",
        "h"
      ],
      [
        "Ġc",
        "han"
      ],
      [
        "ig",
        "n"
      ],
      [
        "c",
        "l"
      ],
      [
        "g",
        "n"
      ],
      [
        "ou",
        "n"
      ],
      [
        "ar",
        "ch"
      ],
      [
        "ĠA",
        "S"
      ],
      [
        "a",
        "ge"
      ],
      [
        "Ġ",
        "y"
      ],
      [
        "Ġre",
        "co"
      ],
      [
        "se",
        "arch"
      ],
      [
        "Ġchan",
        "g"
      ],
      [
        "Ġreco",
        "gn"
      ],
      [
        "Ġc",
        "om"
      ],
      [
        "ra",
        "l"
      ],
      [
        "ic",
        "y"
      ],
      [
        "Ġpol",
        "icy"
      ],
      [
        "ĠRe",
        "venue"
      ],
      [
        "Ġ6",
        "06"
      ],
      [
        "Ġal",
        "ign"
      ],
      [
        "ĠAS",
        "C"
      ],
      [
        "Ġchang",
        "ed"
      ],
      [
        "Ġrecogn",
        "ition"
      ],
      [
        "Ġalign",
        "ment"
      ],
      [
        "in",
        "e"
      ],
      [
        "Ġfor",
        "m"
      ],
      [
        "Ġk",
        "eep"
      ],
      [
        "n",
        "ote"
      ],
      [
        "o",
        "RA"
      ],
      [
        "Ġa",
        "da"
      ],
      [
        "Ġre",
        "search"
      ],
      [
        "Ġb",
        "f"
      ],
      [
        "Ġb",
        "ase"
      ],
      [
        "et",
        "w"
      ],
      [
        "pt",
        "ers"
      ],
      [
        "oun",
        "t"
      ],
      [
        "Ġada",
        "pters"
      ],
      [
        "Ġth",
        "at"
      ],
      [
        "Ġ",
        "N"
      ],
      [
        "ar",
        "s"
      ],
      [
        "a",
        "me"
      ],
      [
        "i",
        "m"
      ],
      [
        "Ġsh",
        "ort"
      ],
      [
        "Ġv",
        "ers"
      ],
      [
        "5",
        "0"
      ],
      [
        "m",
        "ount"
      ],
      [
        "Ġreg",
        "ion"
      ],
      [
        "Ġn",
        "ame"
      ],
      [
        "a",
        "ct"
      ],
      [
        "Ġa",
        "mount"
      ],
      [
        "f",
        "s"
      ],
      [
        "Ġsu",
        "b"
      ],
      [
        "o",
        "d"
      ],
      [
        "t",
        "o"
      ],
      [
        "Ġof",
        "fs"
      ],
      [
        "Ġoffs",
        "et"
      ],
      [
        "v",
        "ery"
      ],
      [
        "Ġe",
        "very"
      ],
      [
        "inate",
        "s"
      ],
      [
        "Ġpag",
        "inates"
      ],
      [
        "d",
        "er"
      ],
      [
        "o",
        "ver"
      ],
      [
        "Ġa",
        "v"
      ],
      [
        "Ġh",
        "igh"
      ],
      [
        "u",
        "te"
      ],
      [
        "o",
        "id"
      ],
      [
        "us",
        "es"
      ],
      [
        "Ġn",
        "est"
      ],
      [
        "ord",
        "inate"
      ],
      [
        "Ġcla",
        "uses"
      ],
      [
        "Ġsub",
        "ordinate"
      ],
      [
        "Ġav",
        "oid"
      ],
      [
        "Ġnest",
        "ed"
      ],
      [
        "C",
        "ite"
      ],
      [
        "Ġs",
        "ource"
      ],
      [
        "Ġin",
        "v"
      ],
      [
        "ou",
        "t"
      ],
      [
        "Ġf",
        "act"
      ],
      [
        "Ġcla",
        "im"
      ],
      [
        "Ġfact",
        "ual"
      ],
      [
        "iz",
        "e"
      ],
      [
        "t",
        "h"
      ],
      [
        "D",
        "raft"
      ],
      [
        "o",
        "od"
      ],
      [
        "Ġc",
        "over"
      ],
      [
        "Ġde",
        "cl"
      ],
      [
        "Ġdecl",
        "ining"
      ],
      [
        "en",
        "d"
      ],
      [
        "Ġs",
        "ent"
      ],
      [
        "ce",
        "d"
      ],
      [
        "Ġb",
        "e"
      ],
      [
        "Ġcont",
        "ra"
      ],
      [
        "Ġun",
        "der"
      ],
      [
        "Ġcover",
        "ing"
      ],
      [
        "Ġsent",
        "ence"
      ],
      [
        "Ã",
        "©"
      ],
      [
        "us",
        "ed"
      ],
      [
        "ist",
        "er"
      ],
      [
        "Ġn",
        "o"
      ],
      [
        "ction",
        "s"
      ],
      [
        "P",
        "lan"
      ],
      [
        "U",
        "se"
      ],
      [
        "p",
        "on"
      ],
      [
        "Ġf",
        "oc"
      ],
      [
        "Ġf",
        "ood"
      ],
      [
        "Ġreg",
        "ister"
      ],
      [
        "Ġform",
        "al"
      ],
      [
        "Ġfoc",
        "used"
      ],
      [
        "p",
        "p"
      ],
      [
        "an",
        "ced"
      ],
      [
        "Ġc",
        "an"
      ],
      [
        "al",
        "anced"
      ],
      [
        "Ġb",
        "alanced"
      ],
      [
        "are",
        "d"
      ],
      [
        "Ġcontra",
        "ctions"
      ],
      [
        "s",
        "wer"
      ],
      [
        "Ġre",
        "venue"
      ],
      [
        "Ġw",
        "ord"
      ],
      [
        "K",
        "eep"
      ],
      [
        "Ġan",
        "swer"
      ],
      [
        "Ġword",
        "s"
      ],
      [
        "Q",
        "L"
      ],
      [
        "re",
        "e"
      ],
      [
        "Ġf",
        "la"
      ],
      [
        "ummar",
        "ize"
      ],
      [
        "ĠS",
        "QL"
      ],
      [
        "Ġy",
        "ou"
      ],
      [
        "S",
        "ummarize"
      ],
      [
        "Ġa",
        "bs"
      ],
      [
        "Ġs",
        "qu"
      ],
      [
        "Ġb",
        "ut"
      ],
      [
        "ol",
        "ute"
      ],
      [
        "Ġsp",
        "ars"
      ],
      [
        "Ġfla",
        "g"
      ],
      [
        "Ġabs",
        "olute"
      ],
      [
        "Ġsqu",
        "ared"
      ],
      [
        "Ġspars",
        "ity"
      ],
      [
        "ac",
        "k"
      ],
      [
        "G",
        "i"
      ],
      [
        "Ġ",
        "J"
      ],
      [
        "Ġ",
        "out"
      ],
      [
        "Ġs",
        "end"
      ],
      [
        "Ġw",
        "rite"
      ],
      [
        "Gi",
        "ven"
      ],
      [
        "D",
        "e"
      ],
      [
        "Ġs",
        "w"
      ],
      [
        "Ġd",
        "raft"
      ],
      [
        "Ġjo",
        "ining"
      ],
      [
        "Ġ",
        "F"
      ],
      [
        "Ġw",
        "hi"
      ],
      [
        "Ġth",
        "ree"
      ],
      [
        "Ġwhi",
        "le"
      ],
      [
        "S",
        "ON"
      ],
      [
        "v",
        "ers"
      ],
      [
        "es",
        "pon"
      ],
      [
        "Ġus",
        "ing"
      ],
      [
        "ĠJ",
        "SON"
      ],
      [
        "Ġkeep",
        "ing"
      ],
      [
        "De",
        "bug"
      ],
      [
        "L",
        "oRA"
      ],
      [
        "R",
        "espon"
      ],
      [
        "b",
        "it"
      ],
      [
        "ant",
        "iz"
      ],
      [
        "Ġqu",
        "antiz"
      ],
      [
        "ĠQ",
        "LoRA"
      ],
      [
        "ĠN",
        "F"
      ],
      [
        "Respon",
        "d"
      ],
      [
        "Ġquantiz",
        "es"
      ],
      [
        "is",
        "e"
      ],
      [
        "la",
        "r"
      ],
      [
        "W",
        "hat"
      ],
      [
        "d",
        "u"
      ],
      [
        "l",
        "igh"
      ],
      [
        "Ġcon",
        "c"
      ],
      [
        "Ġs",
        "ummar"
      ],
      [
        "Ġst",
        "ack"
      ],
      [
        "ĠI",
        "n"
      ],
      [
        "Ġvers",
        "us"
      ],
      [
        "Ġhigh",
        "ligh"
      ],
      [
        "Ġconc",
        "ise"
      ],
      [
        "Ġsummar",
        "y"
      ],
      [
        "Ġhighligh",
        "ted"
      ],
      [
        "i",
        "me"
      ],
      [
        "u",
        "lar"
      ],
      [
        "Ġtra",
        "ce"
      ],
      [
        "Ġt",
        "e"
      ],
      [
        "Ġt",
        "ime"
      ],
      [
        "Ġre",
        "vers"
      ],
      [
        "Ġcom",
        "ple"
      ],
      [
        "k",
        "ed"
      ],
      [
        "y",
        "th"
      ],
      [
        "ĠP",
        "yth"
      ],
      [
        "Ġcomple",
        "x"
      ],
      [
        "ĠPyth",
        "on"
      ],
      [
        "?",
        "["
      ],
      [
        "i",
        "b"
      ],
      [
        "t",
        "s"
      ],
      [
        "Ġ",
        "H"
      ],
      [
        "an",
        "d"
      ],
      [
        "Ġin",
        "to"
      ],
      [
        "Ġcomplex",
        "ity"
      ],
      [
        "k",
        "et"
      ],
      [
        "Ġus",
        "e"
      ],
      [
        "W",
        "rite"
      ],
      [
        "s",
        "ed"
      ],
      [
        "Ġ",
        "it"
      ],
      [
        "en",
        "ch"
      ],
      [
        "Ġreg",
        "ular"
      ],
      [
        "D",
        "o"
      ],
      [
        "h",
        "ly"
      ],
      [
        "in",
        "ked"
      ],
      [
        "Ġl",
        "inked"
      ],
      [
        "Ġd",
        "if"
      ],
      [
        "er",
        "nal"
      ],
      [
        "Ġc",
        "lo"
      ],
      [
        "Ġs",
        "m"
      ],
      [
        "ra",
        "g"
      ],
      [
        "Ġp",
        "lan"
      ],
      [
        "Ġe",
        "xt"
      ],
      [
        "ar",
        "ter"
      ],
      [
        "du",
        "ction"
      ],
      [
        "Ġext",
        "ernal"
      ],
      [
        "arter",
        "ly"
      ],
      [
        "T",
        "he"
      ],
      [
        "e",
        "en"
      ],
      [
        "m",
        "and"
      ],
      [
        "r",
        "ies"
      ],
      [
        "r",
        "ench"
      ],
      [
        "Ġ",
        "'"
      ],
      [
        "Ġc",
        "ent"
      ],
      [
        "ra",
        "ries"
      ],
      [
        "Ġl",
        "ib"
      ],
      [
        "Ġb",
        "etw"
      ],
      [
        "Ġqu",
        "arterly"
      ],
      [
        "Ġto",
        "day"
      ],
      [
        "Ġde",
        "mand"
      ],
      [
        "ĠF",
        "rench"
      ],
      [
        "Ġregular",
        "ization"
      ],
      [
        "Ġclo",
        "sed"
      ],
      [
        "Ġcent",
        "ral"
      ],
      [
        "Ġlib",
        "raries"
      ],
      [
        "Ġbetw",
        "een"
      ],
      [
        "T",
        "rans"
      ],
      [
        "V",
        "o"
      ],
      [
        "Ġw",
        "e"
      ],
      [
        "la",
        "te"
      ],
      [
        "ic",
        "i"
      ],
      [
        "Ġtra",
        "duction"
      ],
      [
        "Ġanomal",
        "ies"
      ],
      [
        "Ã©",
        "e"
      ],
      [
        "Ġdif",
        "ference"
      ],
      [
        "Ġdemand",
        "Ã©e"
      ],
      [
        "Trans",
        "late"
      ],
      [
        "Vo",
        "ici"
      ],
      [
        "'",
        "["
      ],
      [
        ".",
        "'["
      ],
      [
        "r",
        "in"
      ],
      [
        "r",
        "ashiyama"
      ],
      [
        "ig",
        "ashiyama"
      ],
      [
        "ĠA",
        "rashiyama"
      ],
      [
        "Ġ1",
        "50"
      ],
      [
        "Ġrep",
        "ort"
      ],
      [
        "ĠH",
        "igashiyama"
      ],
      [
        "c",
        "ou"
      ],
      [
        "cou",
        "rag"
      ],
      [
        "o",
        "ot"
      ],
      [
        "in",
        "er"
      ],
      [
        "Ġp",
        "la"
      ],
      [
        "ar",
        "y"
      ],
      [
        "igh",
        "ts"
      ],
      [
        "Ġen",
        "courag"
      ],
      [
        "Ġsh",
        "rin"
      ],
      [
        "Ġsm",
        "oot"
      ],
      [
        "Ġwe",
        "ights"
      ],
      [
        "Ġencourag",
        "es"
      ],
      [
        "Ġshrin",
        "ks"
      ],
      [
        "Ġsmoot",
        "hly"
      ],
      [
        "Ġ",
        "ran"
      ],
      [
        "Ġit",
        "iner"
      ],
      [
        "Ġitiner",
        "ary"
      ],
      [
        "mple",
        "s"
      ],
      [
        "Ġte",
        "mples"
      ],
      [
        "c",
        "u"
      ],
      [
        "Ġ",
        "er"
      ],
      [
        "et",
        "ing"
      ],
      [
        "Ġme",
        "eting"
      ],
      [
        "Ġinv",
        "ite"
      ],
      [
        "Ġer",
        "ror"
      ],
      [
        "M",
        "erge"
      ],
      [
        "T",
        "hat"
      ],
      [
        "Ġa",
        "ver"
      ],
      [
        "an",
        "s"
      ],
      [
        "Ġme",
        "ans"
      ],
      [
        "ĠIn",
        "dex"
      ],
      [
        "Ġaver",
        "age"
      ],
      [
        "E",
        "r"
      ],
      [
        "Er",
        "ror"
      ],
      [
        "Ġran",
        "ge"
      ],
      [
        "Ġa",
        "pp"
      ],
      [
        "lo",
        "w"
      ],
      [
        "a",
        "ch"
      ],
      [
        "s",
        "um"
      ],
      [
        "ro",
        "ach"
      ],
      [
        "stom",
        "er"
      ],
      [
        "point",
        "er"
      ],
      [
        "Ġsw",
        "ap"
      ],
      [
        "ĠIndex",
        "Error"
      ],
      [
        "Ġapp",
        "roach"
      ],
      [
        "Ġas",
        "sum"
      ],
      [
        "cu",
        "stomer"
      ],
      [
        "Ġre",
        "ference"
      ],
      [
        "Ġassum",
        "ing"
      ],
      [
        "Ġreference",
        "s"
      ],
      [
        "Ġm",
        "erge"
      ],
      [
        "Ġbe",
        "low"
      ],
      [
        "Ġe",
        "x"
      ],
      [
        "Ġanomal",
        "y"
      ],
      [
        "ite",
        "m"
      ],
      [
        "s",
        "s"
      ],
      [
        "Ġ",
        "item"
      ],
      [
        "b",
        "as"
      ],
      [
        "Ġrevers",
        "es"
      ],
      [
        "Ġpla",
        "ce"
      ],
      [
        "Ġlo",
        "wer"
      ],
      [
        "Ġ",
        "mar"
      ],
      [
        "Ġmar",
        "ket"
      ],
      [
        "Ġ",
        "Ċ"
      ],
      [
        "Ġpro",
        "ce"
      ],
      [
        "Ġre",
        "ad"
      ],
      [
        "Ġlo",
        "op"
      ],
      [
        "Ġpa",
        "st"
      ],
      [
        "Ġla",
        "st"
      ],
      [
        "Ġread",
        "ing"
      ],
      [
        "i",
        "p"
      ],
      [
        "e",
        "l"
      ],
      [
        "0",
        "0"
      ],
      [
        "Ġproce",
        "ss"
      ],
      [
        "Ġst",
        "at"
      ],
      [
        "c",
        "y"
      ],
      [
        "en",
        "cy"
      ],
      [
        "at",
        "ency"
      ],
      [
        "bas",
        "ed"
      ],
      [
        "Ġex",
        "ample"
      ],
      [
        "Ġl",
        "atency"
      ],
      [
        "or",
        "ted"
      ],
      [
        "Ġ",
        "id"
      ],
      [
        "â",
        "Ģ"
      ],
      [
        "Ġ",
        "{"
      ],
      [
        "Ġp",
        "re"
      ],
      [
        "t",
        "r"
      ],
      [
        "m",
        "b"
      ],
      [
        "o",
        "k"
      ],
      [
        "Ġ",
        "Ex"
      ],
      [
        "ĠA",
        "t"
      ],
      [
        "Ġp",
        "ip"
      ],
      [
        "Ġ{",
        "\""
      ],
      [
        "Ġm",
        "s"
      ],
      [
        "ĠEx",
        "ample"
      ],
      [
        "Ġv",
        "ar"
      ],
      [
        "Ġus",
        "ed"
      ],
      [
        "i",
        "ant"
      ],
      [
        "re",
        "cord"
      ],
      [
        "ĠT",
        "e"
      ],
      [
        "Ġpa",
        "y"
      ],
      [
        "Ġrep",
        "orted"
      ],
      [
        "Ġvar",
        "iant"
      ],
      [
        "Ġvariant",
        "s"
      ],
      [
        "t",
        "opic"
      ],
      [
        "ĠT",
        "opic"
      ],
      [
        "lo",
        "ad"
      ],
      [
        "ĠRe",
        "cord"
      ],
      [
        "Ġjo",
        "b"
      ],
      [
        "Ġitem",
        "s"
      ],
      [
        "el",
        "ine"
      ],
      [
        "Ġstat",
        "us"
      ],
      [
        "Ġpip",
        "eline"
      ],
      [
        "ĠTe",
        "xt"
      ],
      [
        "Ġpay",
        "load"
      ],
      [
        "at",
        "a"
      ],
      [
        "âĢ",
        "Ļ"
      ],
      [
        "O",
        "K"
      ],
      [
        "a",
        "b"
      ],
      [
        "Ġ",
        "0"
      ],
      [
        "tr",
        "ue"
      ],
      [
        "or",
        "e"
      ],
      [
        "in",
        "s"
      ],
      [
        "Ġ",
        "â"
      ],
      [
        "Ġtoken",
        "ization"
      ],
      [
        "Ġ",
        "Ġ"
      ],
      [
        "ic",
        "ation"
      ],
      [
        "es",
        "s"
      ],
      [
        "ion",
        "s"
      ],
      [
        "iz",
        "er"
      ],
      [
        "ess",
        "ions"
      ],
      [
        "Ġtoken",
        "izer"
      ],
      [
        "Ġâ",
        "Ĥ"
      ],
      [
        "er",
        "ing"
      ],
      [
        "ĠâĤ",
        "¹"
      ],
      [
        ")",
        "."
      ],
      [
        "0",
        "1"
      ],
      [
        "t",
        "ra"
      ],
      [
        "d",
        "oc"
      ],
      [
        "i",
        "x"
      ],
      [
        "Ġs",
        "y"
      ],
      [
        "il",
        "ity"
      ],
      [
        "ent",
        "if"
      ],
      [
        "Ġcont",
        "a"
      ],
      [
        "%",
        ","
      ],
      [
        "ol",
        "s"
      ],
      [
        "Ġid",
        "entif"
      ],
      [
        "mb",
        "ols"
      ],
      [
        "ab",
        "ility"
      ],
      [
        "ix",
        "ed"
      ],
      [
        "Ġsy",
        "mbols"
      ],
      [
        "Ġidentif",
        "i"
      ],
      [
        "Ġ",
        "Explain"
      ],
      [
        "te",
        "m"
      ],
      [
        "Ġsc",
        "ore"
      ],
      [
        "tra",
        "ining"
      ],
      [
        "Ġconta",
        "ins"
      ],
      [
        "Ġs",
        "ample"
      ],
      [
        "Ġm",
        "ixed"
      ],
      [
        "ĠI",
        "tem"
      ],
      [
        "Ġidentifi",
        "er"
      ],
      [
        "Ġd",
        "ata"
      ],
      [
        "Ġ",
        "le"
      ],
      [
        "=",
        "="
      ],
      [
        "-",
        "-"
      ],
      [
        "at",
        "u"
      ],
      [
        "Ġc",
        "l"
      ],
      [
        "Ġs",
        "essions"
      ],
      [
        "d",
        "s"
      ],
      [
        "a",
        "y"
      ],
      [
        "ist",
        "ic"
      ],
      [
        "istic",
        "s"
      ],
      [
        "u",
        "l"
      ],
      [
        "Ġ",
        "7"
      ],
      [
        "Ġa",
        "t"
      ],
      [
        "d",
        "ata"
      ],
      [
        "i",
        "ence"
      ],
      [
        "re",
        "s"
      ],
      [
        "Ġsc",
        "ience"
      ],
      [
        "Ġ",
        "9"
      ],
      [
        "Ġ",
        "C"
      ],
      [
        "T",
        "I"
      ],
      [
        "Ġ",
        "5"
      ],
      [
        "of",
        "t"
      ],
      [
        "bas",
        "es"
      ],
      [
        "Ġ",
        "8"
      ],
      [
        "ar",
        "n"
      ],
      [
        "w",
        "are"
      ],
      [
        "Ġex",
        "p"
      ],
      [
        "l",
        "ication"
      ],
      [
        "oft",
        "ware"
      ],
      [
        "Ġle",
        "arn"
      ],
      [
        "a",
        "ction"
      ],
      [
        "g",
        "ine"
      ],
      [
        "Ġen",
        "gine"
      ],
      [
        "rans",
        "action"
      ],
      [
        "Ġengine",
        "ering"
      ],
      [
        "Ġp",
        "oint"
      ],
      [
        "Ġ",
        "user"
      ],
      [
        "Ġ1",
        "2"
      ],
      [
        "t",
        "ion"
      ],
      [
        "gu",
        "age"
      ],
      [
        "Ġlearn",
        "ing"
      ],
      [
        "u",
        "st"
      ],
      [
        "an",
        "guage"
      ],
      [
        "Ġl",
        "anguage"
      ],
      [
        "ing",
        "s"
      ],
      [
        "if",
        "ication"
      ],
      [
        "Ġexp",
        "i"
      ],
      [
        "1",
        "5"
      ],
      [
        "Ġa",
        "d"
      ],
      [
        "ma",
        "ch"
      ],
      [
        "ass",
        "ification"
      ],
      [
        "mach",
        "ine"
      ],
      [
        "a",
        "m"
      ],
      [
        "p",
        "u"
      ],
      [
        "Ġus",
        "ers"
      ],
      [
        "g",
        "ing"
      ],
      [
        "Ġ",
        "\""
      ],
      [
        "Ġ",
        "g"
      ],
      [
        "Ġ",
        "ro"
      ],
      [
        "er",
        "v"
      ],
      [
        "bs",
        "erv"
      ],
      [
        "Ġprocess",
        "ing"
      ],
      [
        "atu",
        "ral"
      ],
      [
        "ul",
        "l"
      ],
      [
        "Ġsp",
        "ik"
      ],
      [
        "mb",
        "ed"
      ],
      [
        "pu",
        "ter"
      ],
      [
        "en",
        "er"
      ],
      [
        "Ġstat",
        "istics"
      ],
      [
        "bserv",
        "ability"
      ],
      [
        "mbed",
        "d"
      ],
      [
        "7",
        "9"
      ],
      [
        "l",
        "ing"
      ],
      [
        "s",
        "er"
      ],
      [
        "Ġ",
        "r"
      ],
      [
        "or",
        "ks"
      ],
      [
        "ro",
        "l"
      ],
      [
        "Ġin",
        "ser"
      ],
      [
        "Ġn",
        "etw"
      ],
      [
        "Ġcont",
        "rol"
      ],
      [
        "Ġad",
        "ds"
      ],
      [
        "Ġinser",
        "tion"
      ],
      [
        "Ġnetw",
        "orks"
      ],
      [
        "TI",
        "ON"
      ],
      [
        "ener",
        "ation"
      ],
      [
        "b",
        "ability"
      ],
      [
        "p",
        "ling"
      ],
      [
        "Ġ",
        "o"
      ],
      [
        "Ġf",
        "ro"
      ],
      [
        "ust",
        "ering"
      ],
      [
        "am",
        "pling"
      ],
      [
        "3",
        "2"
      ],
      [
        "N",
        "G"
      ],
      [
        "re",
        "d"
      ],
      [
        "bug",
        "ging"
      ],
      [
        "ab",
        "le"
      ],
      [
        "mbedd",
        "ings"
      ],
      [
        "3",
        "5"
      ],
      [
        "4",
        "7"
      ],
      [
        "p",
        "ut"
      ],
      [
        "Ġrep",
        "lication"
      ],
      [
        "5",
        "5"
      ],
      [
        "t",
        "il"
      ],
      [
        "Ġt",
        "ransaction"
      ],
      [
        "Ġb",
        "y"
      ],
      [
        "==",
        "=="
      ],
      [
        "3",
        "1"
      ],
      [
        "Ġ",
        "M"
      ],
      [
        "0",
        "4"
      ],
      [
        "ent",
        "ion"
      ],
      [
        "Ġun",
        "til"
      ],
      [
        "y",
        "ment"
      ],
      [
        "Ġ",
        "B"
      ],
      [
        "ro",
        "ug"
      ],
      [
        "it",
        "ation"
      ],
      [
        "lo",
        "yment"
      ],
      [
        "roug",
        "h"
      ],
      [
        "I",
        "NG"
      ],
      [
        "t",
        "ention"
      ],
      [
        "ma",
        "in"
      ],
      [
        "Ġcon",
        "ference"
      ],
      [
        "ran",
        "k"
      ],
      [
        "Ġpro",
        "m"
      ],
      [
        "Ġinv",
        "itation"
      ],
      [
        "Ġcl",
        "assification"
      ],
      [
        "4",
        "4"
      ],
      [
        "5",
        "8"
      ],
      [
        "o",
        "s"
      ],
      [
        "t",
        "oc"
      ],
      [
        "Ġt",
        "r"
      ],
      [
        "Ġde",
        "bugging"
      ],
      [
        "ĠĠ",
        "Ġ"
      ],
      [
        "Ġo",
        "bservability"
      ],
      [
        "toc",
        "ol"
      ],
      [
        "0",
        "7"
      ],
      [
        "1",
        "2"
      ],
      [
        "3",
        "9"
      ],
      [
        "f",
        "al"
      ],
      [
        "z",
        "en"
      ],
      [
        "Ġt",
        "able"
      ],
      [
        "is",
        "ual"
      ],
      [
        "Ġlo",
        "w"
      ],
      [
        "ĠL",
        "oRA"
      ],
      [
        "Ġtra",
        "ins"
      ],
      [
        "Ġkeep",
        "s"
      ],
      [
        "Ġvers",
        "ion"
      ],
      [
        "ip",
        "e"
      ],
      [
        "--",
        "--"
      ],
      [
        "Ġfro",
        "zen"
      ],
      [
        "fal",
        "se"
      ],
      [
        "isual",
        "ization"
      ],
      [
        "1",
        "8"
      ],
      [
        "4",
        "2"
      ],
      [
        "c",
        "he"
      ],
      [
        "e",
        "atu"
      ],
      [
        "Ġ",
        "-"
      ],
      [
        "Ġin",
        "ference"
      ],
      [
        "Ġre",
        "main"
      ],
      [
        "mb",
        "er"
      ],
      [
        "rough",
        "put"
      ],
      [
        "eatu",
        "res"
      ],
      [
        "3",
        "7"
      ],
      [
        "3",
        "8"
      ],
      [
        "4",
        "9"
      ],
      [
        "6",
        "8"
      ],
      [
        "Ġ",
        "he"
      ],
      [
        "Ġ",
        "ol"
      ],
      [
        "Ġs",
        "ampling"
      ],
      [
        "te",
        "mber"
      ],
      [
        "re",
        "ss"
      ],
      [
        "us",
        "e"
      ],
      [
        "Ġre",
        "cord"
      ],
      [
        "it",
        "che"
      ],
      [
        "ep",
        "loyment"
      ],
      [
        "ep",
        "tember"
      ],
      [
        "ĠS",
        "tr"
      ],
      [
        "ĠS",
        "eptember"
      ],
      [
        "Ġpro",
        "bability"
      ],
      [
        "Ġdata",
        "bases"
      ],
      [
        "data",
        "bases"
      ],
      [
        "Ġg",
        "eneration"
      ],
      [
        "itche",
        "d"
      ],
      [
        "7",
        "5"
      ],
      [
        "c",
        "om"
      ],
      [
        "e",
        "ar"
      ],
      [
        "g",
        "ac"
      ],
      [
        "s",
        "sor"
      ],
      [
        "Ġs",
        "oftware"
      ],
      [
        "Ġf",
        "in"
      ],
      [
        "ĠP",
        "ay"
      ],
      [
        "Ġsw",
        "itched"
      ],
      [
        "Ġproce",
        "ssor"
      ],
      [
        "Ġle",
        "gac"
      ],
      [
        "ĠM",
        "ay"
      ],
      [
        "Ġol",
        "d"
      ],
      [
        "Ġrecord",
        "s"
      ],
      [
        "ĠStr",
        "ipe"
      ],
      [
        "ĠPay",
        "ment"
      ],
      [
        "Ġlegac",
        "y"
      ],
      [
        "1",
        "9"
      ],
      [
        "I",
        "C"
      ],
      [
        "b",
        "on"
      ],
      [
        "l",
        "f"
      ],
      [
        "is",
        "bon"
      ],
      [
        "um",
        "s"
      ],
      [
        "Ġm",
        "use"
      ],
      [
        "ĠL",
        "isbon"
      ],
      [
        "pla",
        "ce"
      ],
      [
        "Ġsu",
        "pp"
      ],
      [
        "Ġcl",
        "ustering"
      ],
      [
        "Ġtr",
        "ip"
      ],
      [
        "Ġmuse",
        "ums"
      ],
      [
        "0",
        "8"
      ],
      [
        "0",
        "9"
      ],
      [
        "s",
        "oftware"
      ],
      [
        "Ġe",
        "mbeddings"
      ],
      [
        "ut",
        "ing"
      ],
      [
        "Ġrevers",
        "e"
      ],
      [
        "Ġpoint",
        "ers"
      ],
      [
        "Ġexpi",
        "red"
      ],
      [
        "Ġfin",
        "ds"
      ],
      [
        "0",
        "5"
      ],
      [
        "4",
        "6"
      ],
      [
        "7",
        "2"
      ],
      [
        "f",
        "ore"
      ],
      [
        "Ġ",
        "("
      ],
      [
        "Ġ",
        "V"
      ],
      [
        "in",
        "ation"
      ],
      [
        "Ġus",
        "es"
      ],
      [
        "Ġ4",
        "7"
      ],
      [
        "Ġpag",
        "ination"
      ],
      [
        "Ġbe",
        "fore"
      ],
      [
        "ress",
        "ion"
      ],
      [
        "Ġsupp",
        "ort"
      ],
      [
        "1",
        "4"
      ],
      [
        "E",
        "R"
      ],
      [
        "s",
        "essions"
      ],
      [
        "Ġn",
        "ull"
      ],
      [
        "Ġd",
        "ere"
      ],
      [
        "Ġd",
        "eployment"
      ],
      [
        "ition",
        "s"
      ],
      [
        "Ġsentence",
        "s"
      ],
      [
        "Ġpoint",
        "er"
      ],
      [
        "Ġ12",
        "0"
      ],
      [
        "Ġspik",
        "e"
      ],
      [
        "Ġdere",
        "ference"
      ],
      [
        "4",
        "5"
      ],
      [
        "7",
        "8"
      ],
      [
        "A",
        "TION"
      ],
      [
        "l",
        "ine"
      ],
      [
        "Ġ",
        "machine"
      ],
      [
        "ce",
        "pt"
      ],
      [
        "Ġv",
        "isualization"
      ],
      [
        "ate",
        "s"
      ],
      [
        "Ġ1",
        "5"
      ],
      [
        "Ġ1",
        "6"
      ],
      [
        "ote",
        "s"
      ],
      [
        "el",
        "s"
      ],
      [
        "Ġat",
        "tention"
      ],
      [
        "Ġ",
        "G"
      ],
      [
        "Ġp",
        "os"
      ],
      [
        "ers",
        "ide"
      ],
      [
        "Ġf",
        "eatures"
      ],
      [
        "ĠA",
        "lf"
      ],
      [
        "iv",
        "erside"
      ],
      [
        "Ġpro",
        "tocol"
      ],
      [
        "Ġcom",
        "puter"
      ],
      [
        "ars",
        "ing"
      ],
      [
        "Ã©",
        "m"
      ],
      [
        "Ġout",
        "line"
      ],
      [
        "el",
        "Ã©m"
      ],
      [
        "Ġr",
        "iverside"
      ],
      [
        "ĠB",
        "elÃ©m"
      ],
      [
        "ĠAlf",
        "ama"
      ],
      [
        "2",
        "2"
      ],
      [
        "3",
        "6"
      ],
      [
        "5",
        "6"
      ],
      [
        "c",
        "ket"
      ],
      [
        "n",
        "atural"
      ],
      [
        "t",
        "ates"
      ],
      [
        "Â",
        "²"
      ],
      [
        "Ġn",
        "atural"
      ],
      [
        "Ġn",
        "ear"
      ],
      [
        "Ġ1",
        "1"
      ],
      [
        "Ġ1",
        "4"
      ],
      [
        "Ġhigh",
        "er"
      ],
      [
        "Ġexpi",
        "res"
      ],
      [
        "Ġro",
        "tates"
      ],
      [
        "Ġpos",
        "itions"
      ],
      [
        "2",
        "9"
      ],
      [
        "9",
        "9"
      ],
      [
        "H",
        "e"
      ],
      [
        "W",
        "AR"
      ],
      [
        "b",
        "els"
      ],
      [
        "Ġs",
        "e"
      ],
      [
        "Ġs",
        "orted"
      ],
      [
        "Ġth",
        "roughput"
      ],
      [
        "est",
        "ing"
      ],
      [
        "Ġform",
        "er"
      ],
      [
        "Ġprom",
        "otes"
      ],
      [
        "Ġhe",
        "ap"
      ],
      [
        "com",
        "puter"
      ],
      [
        "Ġnear",
        "ly"
      ],
      [
        "He",
        "ap"
      ],
      [
        "WAR",
        "N"
      ],
      [
        "3",
        "3"
      ],
      [
        "4",
        "8"
      ],
      [
        "P",
        "oint"
      ],
      [
        "er",
        "Ex"
      ],
      [
        "Ġl",
        "ine"
      ],
      [
        "at",
        "istics"
      ],
      [
        "Ġpa",
        "cket"
      ],
      [
        "ĠN",
        "ull"
      ],
      [
        "Ġro",
        "uting"
      ],
      [
        "cept",
        "ion"
      ],
      [
        "Point",
        "erEx"
      ],
      [
        "ĠNull",
        "PointerEx"
      ],
      [
        "ĠNullPointerEx",
        "ception"
      ],
      [
        "1",
        "1"
      ],
      [
        "2",
        "7"
      ],
      [
        "2",
        "8"
      ],
      [
        "9",
        "8"
      ],
      [
        "e",
        "ct"
      ],
      [
        "Ġ",
        "D"
      ],
      [
        "er",
        "day"
      ],
      [
        "us",
        "ual"
      ],
      [
        "Ġun",
        "usual"
      ],
      [
        "est",
        "erday"
      ],
      [
        "Ġy",
        "esterday"
      ],
      [
        "Ġspik",
        "es"
      ],
      [
        "0",
        "06"
      ],
      [
        "3",
        "4"
      ],
      [
        "P",
        "L"
      ],
      [
        "Ġreg",
        "ression"
      ],
      [
        "Ġla",
        "bels"
      ],
      [
        "00",
        "8"
      ],
      [
        "3",
        "0"
      ],
      [
        "7",
        "0"
      ],
      [
        "S",
        "I"
      ],
      [
        "Ġt",
        "esting"
      ],
      [
        "ĠC",
        "l"
      ],
      [
        "7",
        "7"
      ],
      [
        "Ġpla",
        "y"
      ],
      [
        "Ġ0",
        "4"
      ],
      [
        "Ġ0",
        "8"
      ],
      [
        "0",
        "02"
      ],
      [
        "1",
        "3"
      ],
      [
        "1",
        "7"
      ],
      [
        "2",
        "0"
      ],
      [
        "2",
        "6"
      ],
      [
        "5",
        "3"
      ],
      [
        "Ġ",
        "âĢ"
      ],
      [
        "Ġp",
        "arsing"
      ],
      [
        "Ġ1",
        "7"
      ],
      [
        "Ġ1",
        "9"
      ],
      [
        "====",
        "===="
      ],
      [
        "IC",
        "ATION"
      ],
      [
        ")",
        ":"
      ],
      [
        "4",
        "0"
      ],
      [
        "5",
        "4"
      ],
      [
        "i",
        "r"
      ],
      [
        "p",
        "ro"
      ],
      [
        "Ġ",
        "="
      ],
      [
        "to",
        "ken"
      ],
      [
        "00",
        "9"
      ],
      [
        "1",
        "0"
      ],
      [
        "5",
        "7"
      ],
      [
        "A",
        "B"
      ],
      [
        "i",
        "e"
      ],
      [
        "Ġ",
        "E"
      ],
      [
        "Ġst",
        "r"
      ],
      [
        "Ġ1",
        "0"
      ],
      [
        "Ġ1",
        "8"
      ],
      [
        "ĠR",
        "E"
      ],
      [
        "ĠC",
        "L"
      ],
      [
        ".",
        "."
      ],
      [
        "2",
        "5"
      ],
      [
        "6",
        "1"
      ],
      [
        "A",
        "C"
      ],
      [
        "u",
        "r"
      ],
      [
        "Ġ",
        "06"
      ],
      [
        "Ġ1",
        "3"
      ],
      [
        "Ġ0",
        "9"
      ],
      [
        "4",
        "3"
      ],
      [
        "5",
        "1"
      ],
      [
        "5",
        "2"
      ],
      [
        "7",
        "1"
      ],
      [
        "7",
        "6"
      ],
      [
        "Ġ",
        "02"
      ],
      [
        "Ġ2",
        "0"
      ],
      [
        "\"",
        ","
      ],
      [
        "2",
        "4"
      ],
      [
        "5",
        "9"
      ],
      [
        "7",
        "4"
      ],
      [
        "8",
        "9"
      ],
      [
        "I",
        "L"
      ],
      [
        "I",
        "T"
      ],
      [
        "i",
        "ent"
      ],
      [
        "m",
        "s"
      ],
      [
        "Ġ",
        "W"
      ],
      [
        "Ġ",
        "ra"
      ],
      [
        "ĠP",
        "ro"
      ],
      [
        "----",
        "----"
      ],
      [
        "ĠD",
        "E"
      ],
      [
        "AB",
        "IL"
      ],
      [
        "IT",
        "Y"
      ],
      [
        "ABIL",
        "ITY"
      ],
      [
        "2",
        "1"
      ],
      [
        "4",
        "1"
      ],
      [
        "P",
        "I"
      ],
      [
        "R",
        "E"
      ],
      [
        "S",
        "SI"
      ],
      [
        "i",
        "al"
      ],
      [
        "Ġ",
        "ma"
      ],
      [
        "RO",
        "U"
      ],
      [
        "an",
        "k"
      ],
      [
        "al",
        "l"
      ],
      [
        "Ġ2",
        "1"
      ],
      [
        "ĠS",
        "t"
      ],
      [
        "ĠI",
        "N"
      ],
      [
        "Ġ0",
        "3"
      ],
      [
        "ĠĠ",
        "ĠĠ"
      ],
      [
        "Ġprom",
        "pt"
      ],
      [
        "7",
        "3"
      ],
      [
        "8",
        "8"
      ],
      [
        "A",
        "TI"
      ],
      [
        "d",
        "i"
      ],
      [
        "Ġ",
        "ST"
      ],
      [
        "st",
        "atistics"
      ],
      [
        "ST",
        "IC"
      ],
      [
        "RA",
        "N"
      ],
      [
        "Ġre",
        "s"
      ],
      [
        "ĠP",
        "RO"
      ],
      [
        "Ġ2",
        "2"
      ],
      [
        "Ġ0",
        "5"
      ],
      [
        "ect",
        "or"
      ],
      [
        "ĠSt",
        "atistics"
      ],
      [
        "ATI",
        "STIC"
      ],
      [
        "ĠST",
        "ATISTIC"
      ],
      [
        "ĠSTATISTIC",
        "S"
      ],
      [
        "0",
        "3"
      ],
      [
        "0",
        "16"
      ],
      [
        "6",
        "6"
      ],
      [
        "9",
        "1"
      ],
      [
        "9",
        "3"
      ],
      [
        "K",
        "E"
      ],
      [
        "s",
        "c"
      ],
      [
        "w",
        "ord"
      ],
      [
        "Ġ",
        "$"
      ],
      [
        "Ġ",
        "Y"
      ],
      [
        "Ġ",
        "or"
      ],
      [
        "EN",
        "C"
      ],
      [
        "Ġm",
        "in"
      ],
      [
        "Ġde",
        "f"
      ],
      [
        "ĠR",
        "ep"
      ],
      [
        "Ġr",
        "un"
      ],
      [
        "8",
        "7"
      ],
      [
        "9",
        "6"
      ],
      [
        "S",
        "AC"
      ],
      [
        "]",
        ","
      ],
      [
        "b",
        "le"
      ],
      [
        "e",
        "c"
      ],
      [
        "e",
        "y"
      ],
      [
        "m",
        "er"
      ],
      [
        "p",
        "lication"
      ],
      [
        "t",
        "ransaction"
      ],
      [
        "Ġ",
        "<"
      ],
      [
        "Ġa",
        "c"
      ],
      [
        "st",
        "r"
      ],
      [
        "re",
        "plication"
      ],
      [
        "Ġp",
        "er"
      ],
      [
        "qu",
        "ery"
      ],
      [
        "Ġb",
        "il"
      ],
      [
        "ĠT",
        "o"
      ],
      [
        "ĠT",
        "ransaction"
      ],
      [
        "ĠT",
        "RAN"
      ],
      [
        "ĠA",
        "T"
      ],
      [
        "Ġ3",
        "5"
      ],
      [
        "Ġ3",
        "9"
      ],
      [
        "Ġ2",
        "6"
      ],
      [
        "ute",
        "s"
      ],
      [
        "Ġpre",
        "di"
      ],
      [
        "tr",
        "ie"
      ],
      [
        "Ġ5",
        "9"
      ],
      [
        "Ġfro",
        "m"
      ],
      [
        "PL",
        "ICATION"
      ],
      [
        "ĠâĢ",
        "Ķ"
      ],
      [
        "ĠRE",
        "PLICATION"
      ],
      [
        "ur",
        "n"
      ],
      [
        "ĠRep",
        "lication"
      ],
      [
        "SAC",
        "TION"
      ],
      [
        "ĠTRAN",
        "SACTION"
      ],
      [
        ".",
        "\""
      ],
      [
        "9",
        "7"
      ],
      [
        "A",
        "M"
      ],
      [
        "A",
        "T"
      ],
      [
        "A",
        "SSI"
      ],
      [
        "F",
        "ICATION"
      ],
      [
        "I",
        "Z"
      ],
      [
        "l",
        "d"
      ],
      [
        "o",
        "w"
      ],
      [
        "t",
        "urn"
      ],
      [
        "v",
        "e"
      ],
      [
        "Ġ",
        "U"
      ],
      [
        "Ġ",
        "50"
      ],
      [
        "in",
        "dex"
      ],
      [
        "Ġa",
        "re"
      ],
      [
        "Ġre",
        "turn"
      ],
      [
        "ar",
        "d"
      ],
      [
        "Ġ2",
        "3"
      ],
      [
        "Ġ2",
        "5"
      ],
      [
        "cl",
        "u"
      ],
      [
        "cl",
        "assification"
      ],
      [
        "Ġte",
        "xt"
      ],
      [
        "âĢ",
        "ĵ"
      ],
      [
        "ĠCl",
        "assification"
      ],
      [
        "ĠCL",
        "ASSI"
      ],
      [
        "ĠĠĠĠ",
        "ĠĠĠ"
      ],
      [
        "Ġmin",
        "utes"
      ],
      [
        "IZ",
        "ATION"
      ],
      [
        "ĠCLASSI",
        "FICATION"
      ],
      [
        "2",
        "3"
      ],
      [
        "2",
        "026"
      ],
      [
        "6",
        "3"
      ],
      [
        "6",
        "4"
      ],
      [
        "8",
        "4"
      ],
      [
        "9",
        "5"
      ],
      [
        "P",
        "U"
      ],
      [
        "T",
        "ROL"
      ],
      [
        "U",
        "ST"
      ],
      [
        "_",
        "_"
      ],
      [
        "e",
        "x"
      ],
      [
        "g",
        "ression"
      ],
      [
        "p",
        "s"
      ],
      [
        "Ġ",
        ">"
      ],
      [
        "Ġ",
        "}"
      ],
      [
        "Ġ",
        "if"
      ],
      [
        "er",
        "ank"
      ],
      [
        "st",
        "e"
      ],
      [
        "|>",
        ","
      ],
      [
        "ra",
        "me"
      ],
      [
        "ers",
        "ion"
      ],
      [
        "ou",
        "ld"
      ],
      [
        "Ġv",
        "ector"
      ],
      [
        "ĠT",
        "h"
      ],
      [
        "Ġ3",
        "0"
      ],
      [
        "ON",
        "TROL"
      ],
      [
        "Ġtoken",
        "s"
      ],
      [
        "cl",
        "ustering"
      ],
      [
        "ack",
        "et"
      ],
      [
        "vers",
        "ion"
      ],
      [
        "Ġâ",
        "Ī"
      ],
      [
        "Ġcl",
        "ass"
      ],
      [
        "ĠC",
        "ONTROL"
      ],
      [
        "ĠV",
        "ER"
      ],
      [
        "ĠV",
        "ersion"
      ],
      [
        "ER",
        "ING"
      ],
      [
        "ĠG",
        "eneration"
      ],
      [
        "SI",
        "ON"
      ],
      [
        "ĠCl",
        "ustering"
      ],
      [
        "========",
        "========"
      ],
      [
        "ĠCL",
        "UST"
      ],
      [
        "sc",
        "ore"
      ],
      [
        "ĠTo",
        "ken"
      ],
      [
        "ĠVER",
        "SION"
      ],
      [
        "ĠCLUST",
        "ERING"
      ],
      [
        "6",
        "7"
      ],
      [
        "8",
        "2"
      ],
      [
        "8",
        "5"
      ],
      [
        "8",
        "6"
      ],
      [
        "B",
        "U"
      ],
      [
        "B",
        "ABILITY"
      ],
      [
        "E",
        "D"
      ],
      [
        "E",
        "RA"
      ],
      [
        "G",
        "G"
      ],
      [
        "O",
        "L"
      ],
      [
        "R",
        "V"
      ],
      [
        "a",
        "ul"
      ],
      [
        "c",
        "k"
      ],
      [
        "e",
        "mbeddings"
      ],
      [
        "g",
        "eneration"
      ],
      [
        "o",
        "bservability"
      ],
      [
        "p",
        "h"
      ],
      [
        "s",
        "ampling"
      ],
      [
        "Ġ",
        "Â"
      ],
      [
        "Ġ",
        "OB"
      ],
      [
        "Ġ",
        "Debug"
      ],
      [
        "Ġ",
        "00"
      ],
      [
        "Ġ",
        "ROU"
      ],
      [
        "EN",
        "ERA"
      ],
      [
        "SE",
        "RV"
      ],
      [
        "le",
        "d"
      ],
      [
        "as",
        "h"
      ],
      [
        "ro",
        "ss"
      ],
      [
        "ro",
        "uting"
      ],
      [
        "Ġd",
        "o"
      ],
      [
        "qu",
        "i"
      ],
      [
        "ic",
        "al"
      ],
      [
        "Ġe",
        "mbedd"
      ],
      [
        "Ġto",
        "p"
      ],
      [
        "de",
        "bugging"
      ],
      [
        "ĠO",
        "bservability"
      ],
      [
        "Ġm",
        "y"
      ],
      [
        "Ġen",
        "co"
      ],
      [
        "Ġ3",
        "7"
      ],
      [
        "Ġtra",
        "in"
      ],
      [
        "Ġ1",
        "02"
      ],
      [
        "ĠR",
        "out"
      ],
      [
        "Ġ4",
        "3"
      ],
      [
        "ĠS",
        "ampling"
      ],
      [
        "ĠS",
        "AM"
      ],
      [
        "Ġ6",
        "3"
      ],
      [
        "Ġ6",
        "9"
      ],
      [
        "Ġcom",
        "p"
      ],
      [
        "Ġ7",
        "2"
      ],
      [
        "Ġ7",
        "6"
      ],
      [
        "Ġ9",
        "2"
      ],
      [
        "Ġ9",
        "9"
      ],
      [
        "TI",
        "NG"
      ],
      [
        "79",
        "9"
      ],
      [
        "Ġr",
        "erank"
      ],
      [
        "Ġhe",
        "l"
      ],
      [
        "ĠG",
        "ENERA"
      ],
      [
        "PL",
        "ING"
      ],
      [
        "pro",
        "bability"
      ],
      [
        "Ġstr",
        "ings"
      ],
      [
        "ĠPro",
        "bability"
      ],
      [
        "ĠDE",
        "BU"
      ],
      [
        "ĠPRO",
        "BABILITY"
      ],
      [
        "ĠY",
        "es"
      ],
      [
        "ENC",
        "E"
      ],
      [
        "Ġdef",
        "aul"
      ],
      [
        "ec",
        "ial"
      ],
      [
        "Ġpredi",
        "ct"
      ],
      [
        "clu",
        "de"
      ],
      [
        "ex",
        "ample"
      ],
      [
        "GG",
        "ING"
      ],
      [
        "ĠOB",
        "SERV"
      ],
      [
        "ĠDebug",
        "ging"
      ],
      [
        "ĠROU",
        "TING"
      ],
      [
        "ĠRout",
        "ing"
      ],
      [
        "ĠSAM",
        "PLING"
      ],
      [
        "ĠGENERA",
        "TION"
      ],
      [
        "ĠDEBU",
        "GGING"
      ],
      [
        "Ġdefaul",
        "t"
      ],
      [
        "ĠOBSERV",
        "ABILITY"
      ],
      [
        "2",
        "00"
      ],
      [
        "6",
        "5"
      ],
      [
        "8",
        "1"
      ],
      [
        "8",
        "3"
      ],
      [
        "9",
        "2"
      ],
      [
        "9",
        "4"
      ],
      [
        "A",
        "PI"
      ],
      [
        "B",
        "ED"
      ],
      [
        "D",
        "E"
      ],
      [
        "D",
        "ING"
      ],
      [
        "F",
        "ER"
      ],
      [
        "M",
        "BED"
      ],
      [
        "c",
        "ent"
      ],
      [
        "c",
        "ount"
      ],
      [
        "d",
        "k"
      ],
      [
        "f",
        "ter"
      ],
      [
        "f",
        "ul"
      ],
      [
        "g",
        "ra"
      ],
      [
        "k",
        "ing"
      ],
      [
        "l",
        "ation"
      ],
      [
        "l",
        "atency"
      ],
      [
        "m",
        "in"
      ],
      [
        "m",
        "on"
      ],
      [
        "p",
        "ple"
      ],
      [
        "s",
        "dk"
      ],
      [
        "y",
        "s"
      ],
      [
        "Ġ",
        "--------"
      ],
      [
        "in",
        "ference"
      ],
      [
        "Ġa",
        "r"
      ],
      [
        "st",
        "all"
      ],
      [
        "Ġt",
        "rans"
      ],
      [
        "re",
        "trie"
      ],
      [
        "Ġan",
        "al"
      ],
      [
        "Ġp",
        "r"
      ],
      [
        "la",
        "ble"
      ],
      [
        "Ġd",
        "is"
      ],
      [
        "ed",
        "s"
      ],
      [
        "ct",
        "u"
      ],
      [
        "um",
        "b"
      ],
      [
        "Ġm",
        "ust"
      ],
      [
        "Ġcon",
        "d"
      ],
      [
        "Ġcon",
        "s"
      ],
      [
        "ation",
        "s"
      ],
      [
        "Ġ1",
        "00"
      ],
      [
        "op",
        "tion"
      ],
      [
        "Ġ2",
        "4"
      ],
      [
        "Ġ2",
        "8"
      ],
      [
        "Ġ4",
        "1"
      ],
      [
        "Ġ4",
        "5"
      ],
      [
        "Ġ4",
        "6"
      ],
      [
        "Ġ6",
        "0"
      ],
      [
        "Ġ6",
        "1"
      ],
      [
        "Ġ6",
        "4"
      ],
      [
        "Ġcom",
        "put"
      ],
      [
        "ĠIn",
        "ference"
      ],
      [
        "âĢ",
        "Ŀ"
      ],
      [
        "Ġ0",
        "7"
      ],
      [
        "Ġcl",
        "ient"
      ],
      [
        "Ġ7",
        "4"
      ],
      [
        "Ġ7",
        "8"
      ],
      [
        "Ġ7",
        "9"
      ],
      [
        "Ġ9",
        "4"
      ],
      [
        "Ġ9",
        "6"
      ],
      [
        "Ġ5",
        "3"
      ],
      [
        "Ġ5",
        "4"
      ],
      [
        "Ġ8",
        "5"
      ],
      [
        "Ġ8",
        "6"
      ],
      [
        "ĠâĢ",
        "ľ"
      ],
      [
        "ĠE",
        "mbeddings"
      ],
      [
        "ĠE",
        "MBED"
      ],
      [
        "..",
        ".\""
      ],
      [
        "ĠW",
        "e"
      ],
      [
        "ĠIN",
        "DE"
      ],
      [
        "ĠIN",
        "FER"
      ],
      [
        "KE",
        "Y"
      ],
      [
        "ĠAT",
        "P"
      ],
      [
        "ow",
        "n"
      ],
      [
        "ĠToken",
        "ization"
      ],
      [
        "qui",
        "red"
      ],
      [
        "Ġembedd",
        "ing"
      ],
      [
        "DING",
        "S"
      ],
      [
        "option",
        "al"
      ],
      [
        "ĠEMBED",
        "DINGS"
      ],
      [
        "ĠINDE",
        "X"
      ],
      [
        "ĠINFER",
        "ENCE"
      ],
      [
        "\"",
        ")"
      ],
      [
        "/",
        "/"
      ],
      [
        "6",
        "9"
      ],
      [
        "9",
        "0"
      ],
      [
        ":",
        "//"
      ],
      [
        "=",
        "{"
      ],
      [
        "G",
        "H"
      ],
      [
        "H",
        "ROU"
      ],
      [
        "M",
        "EN"
      ],
      [
        "O",
        "Y"
      ],
      [
        "S",
        "U"
      ],
      [
        "T",
        "OC"
      ],
      [
        "U",
        "ER"
      ],
      [
        "a",
        "i"
      ],
      [
        "a",
        "in"
      ],
      [
        "d",
        "ing"
      ],
      [
        "d",
        "ed"
      ],
      [
        "d",
        "ar"
      ],
      [
        "f",
        "or"
      ],
      [
        "j",
        "s"
      ],
      [
        "j",
        "ect"
      ],
      [
        "l",
        "it"
      ],
      [
        "p",
        "ort"
      ],
      [
        "p",
        "loyment"
      ],
      [
        "s",
        "p"
      ],
      [
        "t",
        "t"
      ],
      [
        "t",
        "ers"
      ],
      [
        "u",
        "ery"
      ],
      [
        "Ġ",
        "#"
      ],
      [
        "Ġ",
        "i"
      ],
      [
        "Ġ",
        "Î"
      ],
      [
        "Ġ",
        "Here"
      ],
      [
        "EN",
        "IZATION"
      ],
      [
        "Ġa",
        "b"
      ],
      [
        "on",
        "e"
      ],
      [
        "en",
        "s"
      ],
      [
        "en",
        "co"
      ],
      [
        "te",
        "st"
      ],
      [
        "ro",
        "un"
      ],
      [
        "ist",
        "ent"
      ],
      [
        "Ġthe",
        "y"
      ],
      [
        "Ġf",
        "ir"
      ],
      [
        "ass",
        "word"
      ],
      [
        "Ġw",
        "as"
      ],
      [
        "Ġw",
        "at"
      ],
      [
        "it",
        "s"
      ],
      [
        "Ġn",
        "umb"
      ],
      [
        "Ġd",
        "al"
      ],
      [
        "Ġb",
        "oun"
      ],
      [
        "de",
        "ployment"
      ],
      [
        "oc",
        "ab"
      ],
      [
        "ĠT",
        "OK"
      ],
      [
        "ĠT",
        "HROU"
      ],
      [
        "fer",
        "ent"
      ],
      [
        "of",
        "f"
      ],
      [
        "ĠA",
        "PI"
      ],
      [
        "il",
        "l"
      ],
      [
        "Ġpa",
        "rame"
      ],
      [
        "se",
        "lf"
      ],
      [
        "Ġ3",
        "6"
      ],
      [
        "Ġ3",
        "8"
      ],
      [
        "ĠQ",
        "UER"
      ],
      [
        "ĠQ",
        "uery"
      ],
      [
        "Ġval",
        "u"
      ],
      [
        "Ġ4",
        "0"
      ],
      [
        "Ġ4",
        "2"
      ],
      [
        "Ġ4",
        "8"
      ],
      [
        "02",
        "8"
      ],
      [
        "ĠS",
        "c"
      ],
      [
        "ik",
        "e"
      ],
      [
        "Ġ6",
        "7"
      ],
      [
        "Ġ6",
        "8"
      ],
      [
        "Ġpro",
        "du"
      ],
      [
        "Ġsu",
        "ch"
      ],
      [
        "Ġsub",
        "word"
      ],
      [
        "th",
        "roughput"
      ],
      [
        "pon",
        "se"
      ],
      [
        "ib",
        "le"
      ],
      [
        "ket",
        "s"
      ],
      [
        "Ġsm",
        "all"
      ],
      [
        "el",
        "l"
      ],
      [
        "ĠAt",
        "tention"
      ],
      [
        "Ġ0",
        "1"
      ],
      [
        "Ġâ",
        "Ĩ"
      ],
      [
        "tra",
        "in"
      ],
      [
        "ay",
        "s"
      ],
      [
        "ul",
        "ts"
      ],
      [
        "Ġ7",
        "1"
      ],
      [
        "Ġ7",
        "5"
      ],
      [
        "Ġ7",
        "7"
      ],
      [
        "Ġ9",
        "1"
      ],
      [
        "Ġ9",
        "3"
      ],
      [
        "Ġ9",
        "7"
      ],
      [
        "Ġ5",
        "1"
      ],
      [
        "Ġ5",
        "2"
      ],
      [
        "Ġ5",
        "5"
      ],
      [
        "Ġ5",
        "6"
      ],
      [
        "Ġ5",
        "8"
      ],
      [
        "Ġ8",
        "0"
      ],
      [
        "Ġ8",
        "1"
      ],
      [
        "Ġ8",
        "3"
      ],
      [
        "Ġ8",
        "4"
      ],
      [
        "Ġ8",
        "8"
      ],
      [
        "Ġ8",
        "9"
      ],
      [
        "Ġby",
        "te"
      ],
      [
        "Ġse",
        "eds"
      ],
      [
        "ĠD",
        "eployment"
      ],
      [
        "PL",
        "OY"
      ],
      [
        "pro",
        "tocol"
      ],
      [
        "token",
        "ization"
      ],
      [
        "Ġra",
        "te"
      ],
      [
        "ĠPro",
        "tocol"
      ],
      [
        "ĠDE",
        "PLOY"
      ],
      [
        "ĠPRO",
        "TOC"
      ],
      [
        "mer",
        "ic"
      ],
      [
        "str",
        "ing"
      ],
      [
        "Ġbil",
        "l"
      ],
      [
        "PU",
        "T"
      ],
      [
        "ĠTh",
        "roughput"
      ],
      [
        "mon",
        "th"
      ],
      [
        "Ġanal",
        "y"
      ],
      [
        "GH",
        "PUT"
      ],
      [
        "MEN",
        "T"
      ],
      [
        "ai",
        "lable"
      ],
      [
        "dar",
        "ies"
      ],
      [
        "js",
        "on"
      ],
      [
        "roun",
        "d"
      ],
      [
        "Ġwat",
        "er"
      ],
      [
        "Ġboun",
        "daries"
      ],
      [
        "ĠTOK",
        "ENIZATION"
      ],
      [
        "ĠTHROU",
        "GHPUT"
      ],
      [
        "ĠQUER",
        "Y"
      ],
      [
        "ĠDEPLOY",
        "MENT"
      ],
      [
        "ĠPROTOC",
        "OL"
      ],
      [
        "\"",
        "]"
      ],
      [
        "(",
        "\""
      ],
      [
        "1",
        "00"
      ],
      [
        "4",
        "50"
      ],
      [
        "6",
        "0"
      ],
      [
        "6",
        "2"
      ],
      [
        "7",
        "79"
      ],
      [
        "7",
        "19"
      ],
      [
        "8",
        "0"
      ],
      [
        "C",
        "H"
      ],
      [
        "E",
        "T"
      ],
      [
        "E",
        "V"
      ],
      [
        "E",
        "ST"
      ],
      [
        "E",
        "AT"
      ],
      [
        "G",
        "RE"
      ],
      [
        "I",
        "SU"
      ],
      [
        "I",
        "EV"
      ],
      [
        "L",
        "S"
      ],
      [
        "M",
        "A"
      ],
      [
        "R",
        "IEV"
      ],
      [
        "S",
        "D"
      ],
      [
        "S",
        "ING"
      ],
      [
        "T",
        "EN"
      ],
      [
        "T",
        "RIEV"
      ],
      [
        "U",
        "RE"
      ],
      [
        "[",
        "\""
      ],
      [
        "]",
        ":"
      ],
      [
        "a",
        "v"
      ],
      [
        "a",
        "st"
      ],
      [
        "a",
        "ra"
      ],
      [
        "a",
        "mount"
      ],
      [
        "b",
        "ic"
      ],
      [
        "c",
        "re"
      ],
      [
        "f",
        "eatures"
      ],
      [
        "g",
        "es"
      ],
      [
        "h",
        "en"
      ],
      [
        "l",
        "l"
      ],
      [
        "l",
        "u"
      ],
      [
        "m",
        "odel"
      ],
      [
        "n",
        "ame"
      ],
      [
        "o",
        "le"
      ],
      [
        "o",
        "ks"
      ],
      [
        "o",
        "ok"
      ],
      [
        "o",
        "bic"
      ],
      [
        "p",
        "arsing"
      ],
      [
        "p",
        "acket"
      ],
      [
        "s",
        "y"
      ],
      [
        "t",
        "xt"
      ],
      [
        "t",
        "op"
      ],
      [
        "u",
        "ctu"
      ],
      [
        "v",
        "isualization"
      ],
      [
        "v",
        "ir"
      ],
      [
        "â",
        "Ĥ"
      ],
      [
        "Ġ",
        "."
      ],
      [
        "Ġ",
        "im"
      ],
      [
        "Ġ",
        "over"
      ],
      [
        "Ġ",
        "Error"
      ],
      [
        "Ġ",
        "--"
      ],
      [
        "Ġ",
        "__"
      ],
      [
        "er",
        "obic"
      ],
      [
        "Ġa",
        "fter"
      ],
      [
        "|>",
        "\""
      ],
      [
        "AR",
        "SING"
      ],
      [
        "le",
        "s"
      ],
      [
        "Ġc",
        "h"
      ],
      [
        "Ġc",
        "ap"
      ],
      [
        "Ġc",
        "od"
      ],
      [
        "Ġs",
        "el"
      ],
      [
        "Ġs",
        "oft"
      ],
      [
        "re",
        "gression"
      ],
      [
        "he",
        "ck"
      ],
      [
        "Ġin",
        "clude"
      ],
      [
        "Ġin",
        "stall"
      ],
      [
        "Ġl",
        "and"
      ],
      [
        "Ġl",
        "ike"
      ],
      [
        "ou",
        "g"
      ],
      [
        "Ġre",
        "f"
      ],
      [
        "Ġre",
        "trie"
      ],
      [
        "Ġf",
        "ol"
      ],
      [
        "Ġf",
        "ell"
      ],
      [
        "AL",
        "IZATION"
      ],
      [
        "at",
        "tention"
      ],
      [
        "es",
        "la"
      ],
      [
        "Ġd",
        "ep"
      ],
      [
        "our",
        "s"
      ],
      [
        "qu",
        "ence"
      ],
      [
        "Ġv",
        "ocab"
      ],
      [
        "Ġth",
        "rough"
      ],
      [
        "ar",
        "t"
      ],
      [
        "ot",
        "h"
      ],
      [
        "Ġlo",
        "oks"
      ],
      [
        "oc",
        "h"
      ],
      [
        "ĠT",
        "esting"
      ],
      [
        "ĠT",
        "EST"
      ],
      [
        "un",
        "k"
      ],
      [
        "Ġm",
        "or"
      ],
      [
        "Ġm",
        "ole"
      ],
      [
        "ĠL",
        "atency"
      ],
      [
        "ĠL",
        "AT"
      ],
      [
        "Ġst",
        "ill"
      ],
      [
        "Ġcon",
        "straint"
      ],
      [
        "lo",
        "g"
      ],
      [
        "ĠP",
        "arsing"
      ],
      [
        "ĠP",
        "AC"
      ],
      [
        "ĠP",
        "acket"
      ],
      [
        "ĠP",
        "ARSING"
      ],
      [
        "Ġ3",
        "1"
      ],
      [
        "Ġ3",
        "2"
      ],
      [
        "Ġ3",
        "3"
      ],
      [
        "Ġ3",
        "4"
      ],
      [
        "Ġsh",
        "ould"
      ],
      [
        "Ġ2",
        "7"
      ],
      [
        "Ġ2",
        "9"
      ],
      [
        "Ġ2",
        "15"
      ],
      [
        "ĠRe",
        "gression"
      ],
      [
        "Ġrep",
        "res"
      ],
      [
        "Ġ4",
        "4"
      ],
      [
        "Ġ4",
        "9"
      ],
      [
        "02",
        "5"
      ],
      [
        "ĠS",
        "et"
      ],
      [
        "Ġdocument",
        "s"
      ],
      [
        "06",
        "6"
      ],
      [
        "Ġ6",
        "2"
      ],
      [
        "Ġ6",
        "5"
      ],
      [
        "Ġ6",
        "6"
      ],
      [
        "are",
        "s"
      ],
      [
        "Ġk",
        "ey"
      ],
      [
        "Ġsp",
        "ecial"
      ],
      [
        "Ġsp",
        "lit"
      ],
      [
        "Ġact",
        "iv"
      ],
      [
        "Ġtoken",
        "ize"
      ],
      [
        "Ġh",
        "ours"
      ],
      [
        "Ġy",
        "ear"
      ],
      [
        "ĠF",
        "eatures"
      ],
      [
        "ĠF",
        "EAT"
      ],
      [
        "cu",
        "r"
      ],
      [
        "Ġâ",
        "ī"
      ],
      [
        "Ġ7",
        "0"
      ],
      [
        "Ġ7",
        "3"
      ],
      [
        "Ġ9",
        "0"
      ],
      [
        "Ġ9",
        "5"
      ],
      [
        "Ġ9",
        "8"
      ],
      [
        "Ġ5",
        "7"
      ],
      [
        "Ġ8",
        "2"
      ],
      [
        "Ġ8",
        "7"
      ],
      [
        "Ġad",
        "d"
      ],
      [
        "Ġ\"",
        "<|"
      ],
      [
        "Ġ\"",
        "...\""
      ],
      [
        "32",
        "6"
      ],
      [
        "04",
        "2"
      ],
      [
        "04",
        "3"
      ],
      [
        "ĠV",
        "isualization"
      ],
      [
        "ĠV",
        "ISU"
      ],
      [
        "Ġ16",
        "3"
      ],
      [
        "Ġ11",
        "7"
      ],
      [
        "Ġ14",
        "0"
      ],
      [
        "Ġse",
        "quence"
      ],
      [
        "ĠCl",
        "ient"
      ],
      [
        "Ġplay",
        "ful"
      ],
      [
        "token",
        "izer"
      ],
      [
        "ĠRE",
        "GRE"
      ],
      [
        "SSI",
        "ON"
      ],
      [
        "Ġres",
        "ults"
      ],
      [
        "KE",
        "T"
      ],
      [
        "ENC",
        "Y"
      ],
      [
        "Ġac",
        "ross"
      ],
      [
        "Ġper",
        "cent"
      ],
      [
        "Ġbil",
        "led"
      ],
      [
        "ĠAT",
        "TEN"
      ],
      [
        "Ġclass",
        "ic"
      ],
      [
        "Ġ102",
        "4"
      ],
      [
        "Ġhel",
        "lo"
      ],
      [
        "gra",
        "m"
      ],
      [
        "Ġar",
        "r"
      ],
      [
        "retrie",
        "ve"
      ],
      [
        "Ġcomput",
        "ation"
      ],
      [
        "tt",
        "ps"
      ],
      [
        "test",
        "ing"
      ],
      [
        "Ġvalu",
        "es"
      ],
      [
        "Ġbill",
        "ion"
      ],
      [
        "TRIEV",
        "AL"
      ],
      [
        "URE",
        "S"
      ],
      [
        "uctu",
        "red"
      ],
      [
        "vir",
        "on"
      ],
      [
        "Ġ--",
        "-"
      ],
      [
        "Ġcod",
        "es"
      ],
      [
        "Ġsel",
        "f"
      ],
      [
        "Ġretrie",
        "val"
      ],
      [
        "ĠTEST",
        "ING"
      ],
      [
        "Ġmole",
        "cu"
      ],
      [
        "ĠLAT",
        "ENCY"
      ],
      [
        "ĠPAC",
        "KET"
      ],
      [
        "ĠFEAT",
        "URES"
      ],
      [
        "Ġ\"...\"",
        "}"
      ],
      [
        "ĠVISU",
        "ALIZATION"
      ],
      [
        "ĠREGRE",
        "SSION"
      ],
      [
        "ĠATTEN",
        "TION"
      ],
      [
        "'",
        "t"
      ],
      [
        "(",
        ")"
      ],
      [
        "1",
        "12"
      ],
      [
        "2",
        "47"
      ],
      [
        "2",
        "39"
      ],
      [
        "5",
        "38"
      ],
      [
        "6",
        "07"
      ],
      [
        "7",
        "68"
      ],
      [
        "8",
        "68"
      ],
      [
        "9",
        "75"
      ],
      [
        ":",
        ":"
      ],
      [
        "=",
        "\""
      ],
      [
        "E",
        "LS"
      ],
      [
        "E",
        "MA"
      ],
      [
        "I",
        "N"
      ],
      [
        "R",
        "L"
      ],
      [
        "a",
        "k"
      ],
      [
        "a",
        "ir"
      ],
      [
        "a",
        "rame"
      ],
      [
        "b",
        "ook"
      ],
      [
        "c",
        "ipe"
      ],
      [
        "d",
        "r"
      ],
      [
        "e",
        "k"
      ],
      [
        "e",
        "cur"
      ],
      [
        "g",
        "it"
      ],
      [
        "g",
        "et"
      ],
      [
        "g",
        "ment"
      ],
      [
        "g",
        "red"
      ],
      [
        "k",
        "ey"
      ],
      [
        "l",
        "i"
      ],
      [
        "l",
        "ic"
      ],
      [
        "m",
        "ing"
      ],
      [
        "m",
        "ed"
      ],
      [
        "n",
        "e"
      ],
      [
        "n",
        "ing"
      ],
      [
        "n",
        "ual"
      ],
      [
        "n",
        "dpoint"
      ],
      [
        "n",
        "ey"
      ],
      [
        "o",
        "g"
      ],
      [
        "o",
        "st"
      ],
      [
        "p",
        "us"
      ],
      [
        "p",
        "ecial"
      ],
      [
        "p",
        "air"
      ],
      [
        "r",
        "ice"
      ],
      [
        "r",
        "ie"
      ],
      [
        "t",
        "he"
      ],
      [
        "t",
        "end"
      ],
      [
        "t",
        "ings"
      ],
      [
        "t",
        "ical"
      ],
      [
        "u",
        "p"
      ],
      [
        "u",
        "re"
      ],
      [
        "u",
        "ch"
      ],
      [
        "v",
        "ide"
      ],
      [
        "v",
        "ector"
      ],
      [
        "w",
        "n"
      ],
      [
        "w",
        "ay"
      ],
      [
        "y",
        "p"
      ],
      [
        "}",
        "\")"
      ],
      [
        "á",
        "µ"
      ],
      [
        "Ġ",
        "+"
      ],
      [
        "Ġ",
        "x"
      ],
      [
        "Ġ",
        "Ï"
      ],
      [
        "Ġ",
        "role"
      ],
      [
        "Ġ",
        "ord"
      ],
      [
        "Ġ",
        "What"
      ],
      [
        "Ġ",
        "================"
      ],
      [
        "Ġ",
        "optional"
      ],
      [
        "in",
        "clude"
      ],
      [
        "Ġa",
        "pple"
      ],
      [
        "Ġa",
        "round"
      ],
      [
        "st",
        "ions"
      ],
      [
        "on",
        "dr"
      ],
      [
        "Ġt",
        "ur"
      ],
      [
        "Ġt",
        "sp"
      ],
      [
        "or",
        "pus"
      ],
      [
        "en",
        "ted"
      ],
      [
        "en",
        "viron"
      ],
      [
        "le",
        "v"
      ],
      [
        "an",
        "el"
      ],
      [
        "Ġc",
        "ross"
      ],
      [
        "Ġc",
        "heck"
      ],
      [
        "re",
        "qu"
      ],
      [
        "re",
        "ct"
      ],
      [
        "re",
        "quired"
      ],
      [
        "he",
        "e"
      ],
      [
        "he",
        "s"
      ],
      [
        "ce",
        "s"
      ],
      [
        "ce",
        "ive"
      ],
      [
        "ce",
        "ss"
      ],
      [
        "Ġan",
        "nual"
      ],
      [
        "al",
        "ly"
      ],
      [
        "Ġp",
        "h"
      ],
      [
        "Ġp",
        "at"
      ],
      [
        "Ġp",
        "assword"
      ],
      [
        "Ġin",
        "f"
      ],
      [
        "Ġin",
        "t"
      ],
      [
        "Ġin",
        "fer"
      ],
      [
        "Ġl",
        "im"
      ],
      [
        "Ġre",
        "q"
      ],
      [
        "Ġre",
        "quired"
      ],
      [
        "Ġre",
        "ceive"
      ],
      [
        "id",
        "d"
      ],
      [
        "ma",
        "to"
      ],
      [
        "Ġf",
        "rag"
      ],
      [
        "Ġf",
        "ix"
      ],
      [
        "Ġw",
        "hen"
      ],
      [
        "at",
        "ing"
      ],
      [
        "it",
        "al"
      ],
      [
        "it",
        "och"
      ],
      [
        "la",
        "bels"
      ],
      [
        "Ġd",
        "ays"
      ],
      [
        "our",
        "ney"
      ],
      [
        "Ġv",
        "s"
      ],
      [
        "Ġb",
        "ug"
      ],
      [
        "Ġb",
        "ench"
      ],
      [
        "Ġcu",
        "min"
      ],
      [
        "ic",
        "kets"
      ],
      [
        "Ġe",
        "m"
      ],
      [
        "Ġe",
        "ar"
      ],
      [
        "Ġth",
        "an"
      ],
      [
        "ar",
        "ts"
      ],
      [
        "ar",
        "lic"
      ],
      [
        "ol",
        "og"
      ],
      [
        "Ġto",
        "k"
      ],
      [
        "ue",
        "stions"
      ],
      [
        "et",
        "rie"
      ],
      [
        "iz",
        "ed"
      ],
      [
        "ge",
        "log"
      ],
      [
        "ĠT",
        "ickets"
      ],
      [
        "ĠO",
        "K"
      ],
      [
        "Ġm",
        "er"
      ],
      [
        "Ġm",
        "uch"
      ],
      [
        "Ġm",
        "itoch"
      ],
      [
        "ĠL",
        "ab"
      ],
      [
        "ĠL",
        "AB"
      ],
      [
        "igh",
        "t"
      ],
      [
        "Ġwith",
        "out"
      ],
      [
        "Ġst",
        "d"
      ],
      [
        "Ġst",
        "art"
      ],
      [
        "ĠA",
        "d"
      ],
      [
        "ĠA",
        "pple"
      ],
      [
        "mar",
        "k"
      ],
      [
        "Ġus",
        "age"
      ],
      [
        "Ġcon",
        "text"
      ],
      [
        "Ġon",
        "e"
      ],
      [
        "ĠP",
        "arame"
      ],
      [
        "ĠP",
        "rice"
      ],
      [
        "Ġ3",
        "16"
      ],
      [
        "Ġ3",
        "00"
      ],
      [
        "ĠQ",
        "uestions"
      ],
      [
        "Ġde",
        "co"
      ],
      [
        "Ġsh",
        "ares"
      ],
      [
        "Ġ1",
        "79"
      ],
      [
        "Ġ1",
        "32"
      ],
      [
        "Ġme",
        "th"
      ],
      [
        "ĠR",
        "ank"
      ],
      [
        "ĠR",
        "oug"
      ],
      [
        "Ġ2",
        "55"
      ],
      [
        "Ġ2",
        "45"
      ],
      [
        "ĠRe",
        "ference"
      ],
      [
        "Ġj",
        "ust"
      ],
      [
        "Ġj",
        "ourney"
      ],
      [
        "Ġ4",
        "00"
      ],
      [
        "Ġ4",
        "29"
      ],
      [
        "02",
        "2"
      ],
      [
        "ĠS",
        "CH"
      ],
      [
        "ĠS",
        "ecur"
      ],
      [
        "ĠS",
        "pecial"
      ],
      [
        "pla",
        "y"
      ],
      [
        "ug",
        "hly"
      ],
      [
        "ut",
        "h"
      ],
      [
        "Ġun",
        "its"
      ],
      [
        "Ġun",
        "av"
      ],
      [
        "Ġk",
        "m"
      ],
      [
        "Ġpro",
        "te"
      ],
      [
        "Ġpro",
        "vide"
      ],
      [
        "han",
        "gelog"
      ],
      [
        "Ġh",
        "ttps"
      ],
      [
        "Ġy",
        "our"
      ],
      [
        "ĠN",
        "o"
      ],
      [
        "im",
        "mer"
      ],
      [
        "50",
        "3"
      ],
      [
        "50",
        "8"
      ],
      [
        "act",
        "or"
      ],
      [
        "od",
        "s"
      ],
      [
        "th",
        "er"
      ],
      [
        "Ġcontra",
        "st"
      ],
      [
        "pon",
        "ent"
      ],
      [
        "pp",
        "ed"
      ],
      [
        "ĠIn",
        "gred"
      ],
      [
        "ular",
        "y"
      ],
      [
        "Ġte",
        "ch"
      ],
      [
        "ĠH",
        "e"
      ],
      [
        "ĠH",
        "ow"
      ],
      [
        "Ġdif",
        "ferent"
      ],
      [
        "Ġplan",
        "s"
      ],
      [
        "Ġran",
        "king"
      ],
      [
        "00",
        "0"
      ],
      [
        "00",
        "78"
      ],
      [
        "00",
        "33"
      ],
      [
        "00",
        "10"
      ],
      [
        "doc",
        "ument"
      ],
      [
        "Ġ7",
        "44"
      ],
      [
        "Ġ7",
        "68"
      ],
      [
        "Ġat",
        "tend"
      ],
      [
        "ĠC",
        "an"
      ],
      [
        "ĠC",
        "hangelog"
      ],
      [
        "Ġexp",
        "ect"
      ],
      [
        "pu",
        "ted"
      ],
      [
        "Ġg",
        "ly"
      ],
      [
        "Ġg",
        "hee"
      ],
      [
        "Ġg",
        "arlic"
      ],
      [
        "Ġro",
        "ughly"
      ],
      [
        "Ġo",
        "il"
      ],
      [
        "07",
        "8"
      ],
      [
        "18",
        "4"
      ],
      [
        "Ġ-",
        ">"
      ],
      [
        "38",
        "5"
      ],
      [
        "75",
        "9"
      ],
      [
        "09",
        "0"
      ],
      [
        "14",
        "1"
      ],
      [
        "78",
        "6"
      ],
      [
        "ĠG",
        "o"
      ],
      [
        "ĠG",
        "ET"
      ],
      [
        "22",
        "1"
      ],
      [
        "Ġse",
        "e"
      ],
      [
        "Ġse",
        "gment"
      ],
      [
        "pro",
        "ject"
      ],
      [
        "ĠE",
        "ndpoint"
      ],
      [
        "Ġstr",
        "ing"
      ],
      [
        "Ġstr",
        "uctured"
      ],
      [
        "ient",
        "s"
      ],
      [
        "ĠW",
        "h"
      ],
      [
        "Ġra",
        "ce"
      ],
      [
        "Ġma",
        "t"
      ],
      [
        "Ġma",
        "x"
      ],
      [
        "Ġres",
        "ponse"
      ],
      [
        "sc",
        "hema"
      ],
      [
        "ĠY",
        "ou"
      ],
      [
        "Ġac",
        "cept"
      ],
      [
        "Ġpredi",
        "ction"
      ],
      [
        "ĠU",
        "RL"
      ],
      [
        "Ġ50",
        "3"
      ],
      [
        "ste",
        "m"
      ],
      [
        "ph",
        "olog"
      ],
      [
        "Ġdo",
        "es"
      ],
      [
        "Ġenco",
        "ding"
      ],
      [
        "Ġtrain",
        "ed"
      ],
      [
        "Ġcomp",
        "ared"
      ],
      [
        "Ġrerank",
        "er"
      ],
      [
        "ys",
        "is"
      ],
      [
        "Ġpr",
        "i"
      ],
      [
        "Ġpr",
        "int"
      ],
      [
        "Ġdis",
        "count"
      ],
      [
        "Ġcond",
        "ition"
      ],
      [
        "Ġcond",
        "itions"
      ],
      [
        "Ġcons",
        "ens"
      ],
      [
        "Ġnumb",
        "ers"
      ],
      [
        "Ġparame",
        "ter"
      ],
      [
        "ĠSc",
        "hema"
      ],
      [
        "\"]",
        ")"
      ],
      [
        "sy",
        "stem"
      ],
      [
        "Ġim",
        "port"
      ],
      [
        "Ġcap",
        "ital"
      ],
      [
        "Ġland",
        "ing"
      ],
      [
        "Ġref",
        "res"
      ],
      [
        "Ġdep",
        "arts"
      ],
      [
        "oth",
        "er"
      ],
      [
        "Ġmor",
        "pholog"
      ],
      [
        "Ġrepres",
        "ent"
      ],
      [
        "ĠSet",
        "tings"
      ],
      [
        "gram",
        "ming"
      ],
      [
        "Ġtur",
        "meric"
      ],
      [
        "requ",
        "ent"
      ],
      [
        "Ġpat",
        "h"
      ],
      [
        "Ġlim",
        "it"
      ],
      [
        "Ġfrag",
        "ment"
      ],
      [
        "Ġbench",
        "mark"
      ],
      [
        "Ġear",
        "ly"
      ],
      [
        "etrie",
        "val"
      ],
      [
        "Ġmitoch",
        "ondr"
      ],
      [
        "ĠLab",
        "els"
      ],
      [
        "ĠLAB",
        "ELS"
      ],
      [
        "ĠParame",
        "ters"
      ],
      [
        "ĠPrice",
        "s"
      ],
      [
        "Ġmeth",
        "ods"
      ],
      [
        "ĠRoug",
        "hly"
      ],
      [
        "ĠSCH",
        "EMA"
      ],
      [
        "ĠSecur",
        "ity"
      ],
      [
        "Ġunav",
        "ailable"
      ],
      [
        "ĠIngred",
        "ients"
      ],
      [
        "Ġconsens",
        "us"
      ],
      [
        "!",
        "!"
      ],
      [
        "\"",
        "{"
      ],
      [
        "\"",
        "):"
      ],
      [
        "$",
        "{"
      ],
      [
        "%",
        "."
      ],
      [
        "'",
        "re"
      ],
      [
        "'",
        "ll"
      ],
      [
        "(",
        "`"
      ],
      [
        "(",
        ")."
      ],
      [
        ")",
        "}"
      ],
      [
        "-",
        "...\""
      ],
      [
        "/",
        "{"
      ],
      [
        "0",
        "026"
      ],
      [
        "0",
        "32"
      ],
      [
        "0",
        "39"
      ],
      [
        "0",
        "37"
      ],
      [
        "0",
        "36"
      ],
      [
        "1",
        "50"
      ],
      [
        "1",
        "01"
      ],
      [
        "1",
        "35"
      ],
      [
        "1",
        "31"
      ],
      [
        "1",
        "42"
      ],
      [
        "1",
        "75"
      ],
      [
        "1",
        "042"
      ],
      [
        "2",
        "79"
      ],
      [
        "2",
        "12"
      ],
      [
        "3",
        "35"
      ],
      [
        "3",
        "47"
      ],
      [
        "4",
        "79"
      ],
      [
        "4",
        "68"
      ],
      [
        "4",
        "19"
      ],
      [
        "4",
        "14"
      ],
      [
        "5",
        "35"
      ],
      [
        "5",
        "786"
      ],
      [
        "6",
        "79"
      ],
      [
        "6",
        "55"
      ],
      [
        "6",
        "31"
      ],
      [
        "6",
        "39"
      ],
      [
        "6",
        "46"
      ],
      [
        "6",
        "56"
      ],
      [
        "6",
        "77"
      ],
      [
        "6",
        "57"
      ],
      [
        "7",
        "326"
      ],
      [
        "8",
        "07"
      ],
      [
        "8",
        "78"
      ],
      [
        "8",
        "56"
      ],
      [
        "8",
        "48"
      ],
      [
        "8",
        "26"
      ],
      [
        "9",
        "15"
      ],
      [
        "9",
        "31"
      ],
      [
        "9",
        "58"
      ],
      [
        "9",
        "72"
      ],
      [
        "9",
        "30"
      ],
      [
        "9",
        "26"
      ],
      [
        ":",
        "."
      ],
      [
        "A",
        "D"
      ],
      [
        "A",
        "Q"
      ],
      [
        "C",
        "T"
      ],
      [
        "C",
        "ase"
      ],
      [
        "D",
        "s"
      ],
      [
        "E",
        "CT"
      ],
      [
        "L",
        "ECT"
      ],
      [
        "O",
        "ST"
      ],
      [
        "O",
        "OL"
      ],
      [
        "P",
        "E"
      ],
      [
        "T",
        "OOL"
      ],
      [
        "U",
        "M"
      ],
      [
        "U",
        "N"
      ],
      [
        "U",
        "R"
      ],
      [
        "U",
        "SD"
      ],
      [
        "[",
        ":"
      ],
      [
        "`",
        ");"
      ],
      [
        "a",
        "ut"
      ],
      [
        "a",
        "ging"
      ],
      [
        "a",
        "ve"
      ],
      [
        "a",
        "ste"
      ],
      [
        "a",
        "led"
      ],
      [
        "a",
        "king"
      ],
      [
        "a",
        "ges"
      ],
      [
        "a",
        "erobic"
      ],
      [
        "b",
        "re"
      ],
      [
        "b",
        "ra"
      ],
      [
        "b",
        "ase"
      ],
      [
        "b",
        "os"
      ],
      [
        "c",
        "le"
      ],
      [
        "c",
        "al"
      ],
      [
        "c",
        "ing"
      ],
      [
        "c",
        "ol"
      ],
      [
        "c",
        "ard"
      ],
      [
        "c",
        "count"
      ],
      [
        "d",
        "id"
      ],
      [
        "d",
        "it"
      ],
      [
        "d",
        "es"
      ],
      [
        "d",
        "ia"
      ],
      [
        "d",
        "own"
      ],
      [
        "e",
        "h"
      ],
      [
        "e",
        "w"
      ],
      [
        "e",
        "os"
      ],
      [
        "f",
        "it"
      ],
      [
        "g",
        "i"
      ],
      [
        "g",
        "s"
      ],
      [
        "g",
        "or"
      ],
      [
        "g",
        "ist"
      ],
      [
        "g",
        "th"
      ],
      [
        "g",
        "round"
      ],
      [
        "g",
        "anel"
      ],
      [
        "h",
        "ing"
      ],
      [
        "i",
        "ma"
      ],
      [
        "i",
        "ly"
      ],
      [
        "i",
        "mple"
      ],
      [
        "i",
        "el"
      ],
      [
        "j",
        "or"
      ],
      [
        "l",
        "us"
      ],
      [
        "l",
        "se"
      ],
      [
        "l",
        "ash"
      ],
      [
        "m",
        "p"
      ],
      [
        "m",
        "al"
      ],
      [
        "n",
        "er"
      ],
      [
        "n",
        "ess"
      ],
      [
        "n",
        "ect"
      ],
      [
        "n",
        "ical"
      ],
      [
        "n",
        "ight"
      ],
      [
        "n",
        "other"
      ],
      [
        "o",
        "x"
      ],
      [
        "o",
        "ss"
      ],
      [
        "p",
        "y"
      ],
      [
        "p",
        "ed"
      ],
      [
        "p",
        "ted"
      ],
      [
        "p",
        "ad"
      ],
      [
        "p",
        "ress"
      ],
      [
        "r",
        "u"
      ],
      [
        "s",
        "ing"
      ],
      [
        "s",
        "ide"
      ],
      [
        "s",
        "ked"
      ],
      [
        "s",
        "istent"
      ],
      [
        "s",
        "ible"
      ],
      [
        "t",
        "a"
      ],
      [
        "t",
        "ing"
      ],
      [
        "u",
        "ctions"
      ],
      [
        "v",
        "es"
      ],
      [
        "w",
        "o"
      ],
      [
        "x",
        "id"
      ],
      [
        "y",
        "ing"
      ],
      [
        "y",
        "ear"
      ],
      [
        "|",
        "|"
      ],
      [
        "}",
        "&"
      ],
      [
        "}",
        ":"
      ],
      [
        "Â",
        "°"
      ],
      [
        "Ã",
        "Ĺ"
      ],
      [
        "Ġ",
        "*"
      ],
      [
        "Ġ",
        ":"
      ],
      [
        "Ġ",
        "~"
      ],
      [
        "Ġ",
        "stra"
      ],
      [
        "Ġ",
        "De"
      ],
      [
        "Ġ",
        "Do"
      ],
      [
        "Ġ",
        "rin"
      ],
      [
        "Ġ",
        "main"
      ],
      [
        "Ġ",
        "],"
      ],
      [
        "Ġ",
        "up"
      ],
      [
        "er",
        "ies"
      ],
      [
        "er",
        "card"
      ],
      [
        "Ġ[",
        "\""
      ],
      [
        "SE",
        "LECT"
      ],
      [
        "in",
        "it"
      ],
      [
        "Ġa",
        "he"
      ],
      [
        "Ġa",
        "erobic"
      ],
      [
        "Ġa",
        "uth"
      ],
      [
        "st",
        "ima"
      ],
      [
        "Ġt",
        "ot"
      ],
      [
        "Ġt",
        "ask"
      ],
      [
        "Ġt",
        "bs"
      ],
      [
        "Ġt",
        "esla"
      ],
      [
        "Ġt",
        "aste"
      ],
      [
        "or",
        "mal"
      ],
      [
        "RO",
        "M"
      ],
      [
        "en",
        "gth"
      ],
      [
        "le",
        "ct"
      ],
      [
        "le",
        "ase"
      ],
      [
        "an",
        "ce"
      ],
      [
        "Ġc",
        "ol"
      ],
      [
        "Ġc",
        "ode"
      ],
      [
        "Ġc",
        "ard"
      ],
      [
        "Ġc",
        "orpus"
      ],
      [
        "Ġs",
        "ign"
      ],
      [
        "Ġs",
        "ize"
      ],
      [
        "Ġs",
        "low"
      ],
      [
        "Ġs",
        "immer"
      ],
      [
        "te",
        "gist"
      ],
      [
        "re",
        "en"
      ],
      [
        "re",
        "ly"
      ],
      [
        "re",
        "search"
      ],
      [
        "as",
        "on"
      ],
      [
        "ro",
        "pped"
      ],
      [
        "ce",
        "ed"
      ],
      [
        "Ġan",
        "aerobic"
      ],
      [
        "al",
        "for"
      ],
      [
        "Ġp",
        "un"
      ],
      [
        "Ġp",
        "erson"
      ],
      [
        "Ġp",
        "ie"
      ],
      [
        "Ġp",
        "lus"
      ],
      [
        "Ġp",
        "oss"
      ],
      [
        "Ġin",
        "con"
      ],
      [
        "Ġin",
        "put"
      ],
      [
        "Ġin",
        "clu"
      ],
      [
        "Ġin",
        "ste"
      ],
      [
        "Ġl",
        "ate"
      ],
      [
        "Ġl",
        "ength"
      ],
      [
        "Ġthe",
        "m"
      ],
      [
        "Ġthe",
        "se"
      ],
      [
        "Ġthe",
        "ir"
      ],
      [
        "Ġre",
        "fer"
      ],
      [
        "Ġre",
        "tr"
      ],
      [
        "Ġre",
        "di"
      ],
      [
        "Ġre",
        "train"
      ],
      [
        "id",
        "s"
      ],
      [
        "ing",
        "ual"
      ],
      [
        "ma",
        "x"
      ],
      [
        "Ġf",
        "et"
      ],
      [
        "Ġf",
        "lo"
      ],
      [
        "Ġf",
        "ine"
      ],
      [
        "Ġf",
        "ree"
      ],
      [
        "Ġf",
        "low"
      ],
      [
        "Ġf",
        "am"
      ],
      [
        "Ġf",
        "iel"
      ],
      [
        "Ġf",
        "ox"
      ],
      [
        "Ġf",
        "ru"
      ],
      [
        "is",
        "a"
      ],
      [
        "is",
        "ed"
      ],
      [
        "at",
        "ch"
      ],
      [
        "at",
        "ive"
      ],
      [
        "it",
        "ing"
      ],
      [
        "Ġn",
        "ormal"
      ],
      [
        "es",
        "et"
      ],
      [
        "la",
        "ying"
      ],
      [
        "Ġd",
        "es"
      ],
      [
        "Ġd",
        "ot"
      ],
      [
        "Ġd",
        "ue"
      ],
      [
        "Ġd",
        "ash"
      ],
      [
        "Ġd",
        "ropped"
      ],
      [
        "ed",
        "u"
      ],
      [
        "qu",
        "est"
      ],
      [
        "Ġv",
        "er"
      ],
      [
        "Ġv",
        "ide"
      ],
      [
        "Ġb",
        "ro"
      ],
      [
        "Ġb",
        "ack"
      ],
      [
        "Ġb",
        "ank"
      ],
      [
        "Ġb",
        "atch"
      ],
      [
        "Ġcu",
        "p"
      ],
      [
        "Ġcu",
        "ps"
      ],
      [
        "ic",
        "k"
      ],
      [
        "ic",
        "les"
      ],
      [
        "Ġe",
        "arn"
      ],
      [
        "Ġe",
        "lse"
      ],
      [
        "Ġe",
        "stima"
      ],
      [
        "Ġth",
        "en"
      ],
      [
        "Ġth",
        "ere"
      ],
      [
        "ar",
        "ds"
      ],
      [
        "ar",
        "kets"
      ],
      [
        "ol",
        "gi"
      ],
      [
        "Ġto",
        "or"
      ],
      [
        "Ġto",
        "mato"
      ],
      [
        "da",
        "m"
      ],
      [
        "ĠT",
        "han"
      ],
      [
        "ĠT",
        "esla"
      ],
      [
        "ate",
        "ly"
      ],
      [
        "of",
        "fs"
      ],
      [
        "Ġm",
        "ul"
      ],
      [
        "Ġm",
        "idd"
      ],
      [
        "Ġm",
        "alfor"
      ],
      [
        "Ġreg",
        "ards"
      ],
      [
        "Ġof",
        "f"
      ],
      [
        "ith",
        "ms"
      ],
      [
        "Ġwith",
        "in"
      ],
      [
        "Ġst",
        "e"
      ],
      [
        "Ġst",
        "aging"
      ],
      [
        "ĠA",
        "fter"
      ],
      [
        "ĠA",
        "meric"
      ],
      [
        "ĠA",
        "ccount"
      ],
      [
        "ĠA",
        "nother"
      ],
      [
        "ĠA",
        "sked"
      ],
      [
        "ĠA",
        "dam"
      ],
      [
        "mar",
        "y"
      ],
      [
        "Ġcon",
        "f"
      ],
      [
        "Ġcon",
        "st"
      ],
      [
        "Ġcon",
        "sum"
      ],
      [
        "Ġon",
        "ion"
      ],
      [
        "ĠP",
        "assword"
      ],
      [
        "ĠP",
        "OST"
      ],
      [
        "ĠP",
        "lease"
      ],
      [
        "Ġ3",
        "35"
      ],
      [
        "Ġ3",
        "31"
      ],
      [
        "Ġ3",
        "44"
      ],
      [
        "Ġ3",
        "09"
      ],
      [
        "Ġ3",
        "46"
      ],
      [
        "Ġ3",
        "99"
      ],
      [
        "Ġ3",
        "30"
      ],
      [
        "Ġ3",
        "61"
      ],
      [
        "Ġ3",
        "51"
      ],
      [
        "Ġ3",
        "87"
      ],
      [
        "Ġlog",
        "in"
      ],
      [
        "Ġsh",
        "own"
      ],
      [
        "Ġnot",
        "hing"
      ],
      [
        "Ġ1",
        "16"
      ],
      [
        "Ġ1",
        "01"
      ],
      [
        "Ġ1",
        "15"
      ],
      [
        "Ġ1",
        "35"
      ],
      [
        "Ġ1",
        "44"
      ],
      [
        "Ġ1",
        "58"
      ],
      [
        "Ġ1",
        "07"
      ],
      [
        "Ġ1",
        "49"
      ],
      [
        "Ġ1",
        "75"
      ],
      [
        "Ġ1",
        "72"
      ],
      [
        "Ġ1",
        "78"
      ],
      [
        "Ġ1",
        "99"
      ],
      [
        "Ġ1",
        "33"
      ],
      [
        "ia",
        "ble"
      ],
      [
        "ĠR",
        "espon"
      ],
      [
        "ĠR",
        "etrieval"
      ],
      [
        "Ġval",
        "ue"
      ],
      [
        "ory",
        "lation"
      ],
      [
        "Ġ2",
        "00"
      ],
      [
        "Ġ2",
        "35"
      ],
      [
        "Ġ2",
        "48"
      ],
      [
        "Ġ2",
        "98"
      ],
      [
        "Ġ2",
        "54"
      ],
      [
        "ĠRe",
        "cipe"
      ],
      [
        "Ġrep",
        "laying"
      ],
      [
        "Ġj",
        "um"
      ],
      [
        "Ġ4",
        "06"
      ],
      [
        "Ġ4",
        "01"
      ],
      [
        "Ġ4",
        "35"
      ],
      [
        "Ġ4",
        "47"
      ],
      [
        "Ġ4",
        "42"
      ],
      [
        "02",
        "1"
      ],
      [
        "02",
        "7"
      ],
      [
        "ĠS",
        "alt"
      ],
      [
        "ĠS",
        "UM"
      ],
      [
        "ĠS",
        "imple"
      ],
      [
        "ĠI",
        "f"
      ],
      [
        "ĠI",
        "s"
      ],
      [
        "ĠI",
        "t"
      ],
      [
        "ĠI",
        "Ds"
      ],
      [
        "06",
        "1"
      ],
      [
        "06",
        "3"
      ],
      [
        "06",
        "5"
      ],
      [
        "Ġ6",
        "39"
      ],
      [
        "Ġ6",
        "20"
      ],
      [
        "Ġ6",
        "88"
      ],
      [
        "gu",
        "lar"
      ],
      [
        "iv",
        "es"
      ],
      [
        "pt",
        "y"
      ],
      [
        "16",
        "6"
      ],
      [
        "Ġsp",
        "am"
      ],
      [
        "Ġpro",
        "se"
      ],
      [
        "Ġpro",
        "duction"
      ],
      [
        "co",
        "se"
      ],
      [
        "Ġcre",
        "dit"
      ],
      [
        "Ġcur",
        "r"
      ],
      [
        "Ġal",
        "one"
      ],
      [
        "Ġal",
        "gor"
      ],
      [
        "Ġh",
        "ard"
      ],
      [
        "Ġh",
        "its"
      ],
      [
        "Ġh",
        "ave"
      ],
      [
        "Ġchan",
        "ge"
      ],
      [
        "Ġy",
        "et"
      ],
      [
        "Ġcom",
        "puted"
      ],
      [
        "ĠN",
        "ote"
      ],
      [
        "ĠN",
        "otes"
      ],
      [
        "Ġevery",
        "one"
      ],
      [
        "Ġav",
        "ailable"
      ],
      [
        "end",
        "ing"
      ],
      [
        "Ġbe",
        "at"
      ],
      [
        "pon",
        "sible"
      ],
      [
        "pp",
        "ly"
      ],
      [
        "Ġcan",
        "did"
      ],
      [
        "Ġout",
        "play"
      ],
      [
        "Ġout",
        "side"
      ],
      [
        "ĠF",
        "ixed"
      ],
      [
        "ĠF",
        "requent"
      ],
      [
        "ĠF",
        "AQ"
      ],
      [
        "ĠF",
        "ROM"
      ],
      [
        "du",
        "ct"
      ],
      [
        "ĠIn",
        "str"
      ],
      [
        "ĠIn",
        "stall"
      ],
      [
        "ĠIn",
        "dia"
      ],
      [
        "Ġran",
        "k"
      ],
      [
        "Ġex",
        "act"
      ],
      [
        "Ġex",
        "ponent"
      ],
      [
        "Ġex",
        "ceed"
      ],
      [
        "00",
        "5"
      ],
      [
        "00",
        "02"
      ],
      [
        "00",
        "06"
      ],
      [
        "00",
        "16"
      ],
      [
        "00",
        "50"
      ],
      [
        "00",
        "01"
      ],
      [
        "00",
        "15"
      ],
      [
        "00",
        "79"
      ],
      [
        "00",
        "32"
      ],
      [
        "00",
        "35"
      ],
      [
        "00",
        "47"
      ],
      [
        "00",
        "55"
      ],
      [
        "00",
        "31"
      ],
      [
        "00",
        "04"
      ],
      [
        "00",
        "44"
      ],
      [
        "00",
        "58"
      ],
      [
        "00",
        "07"
      ],
      [
        "00",
        "12"
      ],
      [
        "00",
        "39"
      ],
      [
        "00",
        "18"
      ],
      [
        "00",
        "42"
      ],
      [
        "00",
        "37"
      ],
      [
        "00",
        "38"
      ],
      [
        "00",
        "49"
      ],
      [
        "00",
        "75"
      ],
      [
        "00",
        "19"
      ],
      [
        "00",
        "08"
      ],
      [
        "00",
        "09"
      ],
      [
        "00",
        "05"
      ],
      [
        "00",
        "46"
      ],
      [
        "00",
        "72"
      ],
      [
        "00",
        "14"
      ],
      [
        "00",
        "45"
      ],
      [
        "00",
        "36"
      ],
      [
        "00",
        "56"
      ],
      [
        "00",
        "99"
      ],
      [
        "00",
        "48"
      ],
      [
        "00",
        "11"
      ],
      [
        "00",
        "98"
      ],
      [
        "00",
        "34"
      ],
      [
        "00",
        "30"
      ],
      [
        "00",
        "70"
      ],
      [
        "00",
        "77"
      ],
      [
        "00",
        "13"
      ],
      [
        "00",
        "17"
      ],
      [
        "00",
        "53"
      ],
      [
        "00",
        "40"
      ],
      [
        "00",
        "54"
      ],
      [
        "00",
        "57"
      ],
      [
        "00",
        "43"
      ],
      [
        "00",
        "51"
      ],
      [
        "00",
        "52"
      ],
      [
        "00",
        "71"
      ],
      [
        "00",
        "76"
      ],
      [
        "00",
        "59"
      ],
      [
        "00",
        "74"
      ],
      [
        "00",
        "41"
      ],
      [
        "00",
        "73"
      ],
      [
        "00",
        "03"
      ],
      [
        "cy",
        "cle"
      ],
      [
        "Ġid",
        "s"
      ],
      [
        "ĠEx",
        "press"
      ],
      [
        "Ġ0",
        "02"
      ],
      [
        "Ġâ",
        "ĩ"
      ],
      [
        "01",
        "0"
      ],
      [
        "01",
        "1"
      ],
      [
        "01",
        "00"
      ],
      [
        "01",
        "15"
      ],
      [
        "01",
        "32"
      ],
      [
        "01",
        "56"
      ],
      [
        "Ġconta",
        "in"
      ],
      [
        "Ġidentifi",
        "ers"
      ],
      [
        "Ġcl",
        "ick"
      ],
      [
        "res",
        "ponse"
      ],
      [
        "Ġ9",
        "28"
      ],
      [
        "ĠC",
        "I"
      ],
      [
        "ĠC",
        "on"
      ],
      [
        "ĠC",
        "PU"
      ],
      [
        "Ġ5",
        "12"
      ],
      [
        "Ġexp",
        "ort"
      ],
      [
        "Ġ12",
        "2"
      ],
      [
        "Ġ12",
        "5"
      ],
      [
        "Ġ12",
        "7"
      ],
      [
        "Ġ12",
        "9"
      ],
      [
        "15",
        "98"
      ],
      [
        "Ġg",
        "ot"
      ],
      [
        "Ġg",
        "lu"
      ],
      [
        "Ġg",
        "reen"
      ],
      [
        "ener",
        "al"
      ],
      [
        "Ġr",
        "ice"
      ],
      [
        "Ġo",
        "bserv"
      ],
      [
        "Ġo",
        "wn"
      ],
      [
        "Ġo",
        "xid"
      ],
      [
        "Ġfro",
        "st"
      ],
      [
        "32",
        "3"
      ],
      [
        "32",
        "5"
      ],
      [
        "32",
        "7"
      ],
      [
        "35",
        "7"
      ],
      [
        "35",
        "29"
      ],
      [
        "til",
        "ingual"
      ],
      [
        "31",
        "96"
      ],
      [
        "ĠM",
        "ast"
      ],
      [
        "ĠM",
        "arkets"
      ],
      [
        "04",
        "4"
      ],
      [
        "04",
        "8"
      ],
      [
        "ĠB",
        "Y"
      ],
      [
        "ĠB",
        "est"
      ],
      [
        "ĠB",
        "PE"
      ],
      [
        "44",
        "6"
      ],
      [
        "58",
        "1"
      ],
      [
        "os",
        "ph"
      ],
      [
        "Ġtr",
        "ue"
      ],
      [
        "Ġtr",
        "ial"
      ],
      [
        "12",
        "0"
      ],
      [
        "12",
        "6"
      ],
      [
        "12",
        "8"
      ],
      [
        "----",
        "--"
      ],
      [
        "18",
        "0"
      ],
      [
        "18",
        "6"
      ],
      [
        "37",
        "05"
      ],
      [
        "38",
        "1"
      ],
      [
        "49",
        "5"
      ],
      [
        "49",
        "78"
      ],
      [
        "68",
        "7"
      ],
      [
        "Ġhe",
        "y"
      ],
      [
        "Ġfin",
        "ally"
      ],
      [
        "08",
        "0"
      ],
      [
        "08",
        "4"
      ],
      [
        "08",
        "5"
      ],
      [
        "08",
        "6"
      ],
      [
        "08",
        "8"
      ],
      [
        "09",
        "3"
      ],
      [
        "09",
        "6"
      ],
      [
        "09",
        "8"
      ],
      [
        "05",
        "6"
      ],
      [
        "46",
        "3"
      ],
      [
        "72",
        "4"
      ],
      [
        "72",
        "7"
      ],
      [
        "72",
        "48"
      ],
      [
        "ĠV",
        "isa"
      ],
      [
        "14",
        "0"
      ],
      [
        "14",
        "15"
      ],
      [
        "Ġ15",
        "1"
      ],
      [
        "Ġ15",
        "2"
      ],
      [
        "Ġ15",
        "9"
      ],
      [
        "Ġ16",
        "4"
      ],
      [
        "ĠG",
        "olgi"
      ],
      [
        "36",
        "7"
      ],
      [
        "cket",
        "s"
      ],
      [
        "Ġ11",
        "0"
      ],
      [
        "Ġ14",
        "1"
      ],
      [
        "Ġ14",
        "3"
      ],
      [
        "99",
        "9"
      ],
      [
        "Ġse",
        "m"
      ],
      [
        "Ġse",
        "cre"
      ],
      [
        "Ġse",
        "ason"
      ],
      [
        "ĠD",
        "al"
      ],
      [
        "006",
        "0"
      ],
      [
        "006",
        "1"
      ],
      [
        "006",
        "2"
      ],
      [
        "006",
        "3"
      ],
      [
        "006",
        "4"
      ],
      [
        "006",
        "5"
      ],
      [
        "006",
        "6"
      ],
      [
        "006",
        "7"
      ],
      [
        "006",
        "8"
      ],
      [
        "006",
        "9"
      ],
      [
        "008",
        "0"
      ],
      [
        "008",
        "1"
      ],
      [
        "008",
        "2"
      ],
      [
        "008",
        "3"
      ],
      [
        "008",
        "4"
      ],
      [
        "008",
        "5"
      ],
      [
        "008",
        "6"
      ],
      [
        "008",
        "7"
      ],
      [
        "008",
        "8"
      ],
      [
        "008",
        "9"
      ],
      [
        "Ġplay",
        "s"
      ],
      [
        "Ġplay",
        "er"
      ],
      [
        "Ġplay",
        "ing"
      ],
      [
        "Ġplay",
        "ed"
      ],
      [
        "Ġplay",
        "off"
      ],
      [
        "Ġplay",
        "book"
      ],
      [
        "Ġplay",
        "ground"
      ],
      [
        "Ġplay",
        "offs"
      ],
      [
        "002",
        "0"
      ],
      [
        "002",
        "1"
      ],
      [
        "002",
        "2"
      ],
      [
        "002",
        "3"
      ],
      [
        "002",
        "4"
      ],
      [
        "002",
        "5"
      ],
      [
        "002",
        "7"
      ],
      [
        "002",
        "8"
      ],
      [
        "002",
        "9"
      ],
      [
        "17",
        "6"
      ],
      [
        "Ġ17",
        "1"
      ],
      [
        "pro",
        "cess"
      ],
      [
        "token",
        "s"
      ],
      [
        "009",
        "0"
      ],
      [
        "009",
        "1"
      ],
      [
        "009",
        "2"
      ],
      [
        "009",
        "3"
      ],
      [
        "009",
        "4"
      ],
      [
        "009",
        "5"
      ],
      [
        "009",
        "6"
      ],
      [
        "009",
        "7"
      ],
      [
        "Ġ10",
        "3"
      ],
      [
        "ĠRE",
        "TRIEVAL"
      ],
      [
        "..",
        "."
      ],
      [
        "ur",
        "l"
      ],
      [
        "71",
        "18"
      ],
      [
        "76",
        "4"
      ],
      [
        "24",
        "19"
      ],
      [
        "89",
        "73"
      ],
      [
        "ĠW",
        "ould"
      ],
      [
        "Ġra",
        "ther"
      ],
      [
        "ĠPro",
        "gramming"
      ],
      [
        "--------",
        "------"
      ],
      [
        "RE",
        "TRIEVAL"
      ],
      [
        "Ġma",
        "y"
      ],
      [
        "Ġma",
        "jor"
      ],
      [
        "Ġprompt",
        "s"
      ],
      [
        "RAN",
        "K"
      ],
      [
        "Ġres",
        "et"
      ],
      [
        "Ġres",
        "ponsible"
      ],
      [
        "Ġor",
        "ganel"
      ],
      [
        "Ġrun",
        "t"
      ],
      [
        "Ġ<",
        "/"
      ],
      [
        "Ġ<",
        "<"
      ],
      [
        "Ġ39",
        "0"
      ],
      [
        "ĠU",
        "n"
      ],
      [
        "ĠU",
        "PI"
      ],
      [
        "ĠU",
        "SD"
      ],
      [
        "Ġvector",
        "s"
      ],
      [
        "ĠTh",
        "is"
      ],
      [
        "ĠâĪ",
        "ļ"
      ],
      [
        "ĠÂ",
        "°"
      ],
      [
        "Ġ00",
        "1"
      ],
      [
        "Ġ00",
        "3"
      ],
      [
        "Ġenco",
        "de"
      ],
      [
        "Ġcomp",
        "ute"
      ],
      [
        "Ġhel",
        "p"
      ],
      [
        "Ġpredict",
        "ive"
      ],
      [
        "Ġpredict",
        "ability"
      ],
      [
        "Ġ--------",
        "-"
      ],
      [
        "Ġ--------",
        "----"
      ],
      [
        "Ġ--------",
        "--------------"
      ],
      [
        "Ġar",
        "ra"
      ],
      [
        "Ġtrans",
        "for"
      ],
      [
        "Ġtrans",
        "port"
      ],
      [
        "retrie",
        "val"
      ],
      [
        "ctu",
        "ation"
      ],
      [
        "Ġmust",
        "ard"
      ],
      [
        "Ġcons",
        "istent"
      ],
      [
        "Ġcomput",
        "ing"
      ],
      [
        "ĠWe",
        "ek"
      ],
      [
        "Ġab",
        "ility"
      ],
      [
        "enco",
        "de"
      ],
      [
        "enco",
        "der"
      ],
      [
        "Ġfir",
        "st"
      ],
      [
        "Ġfir",
        "ms"
      ],
      [
        "Ġnumb",
        "er"
      ],
      [
        "Ġparame",
        "ters"
      ],
      [
        "Ġprodu",
        "ced"
      ],
      [
        "Ġprodu",
        "cing"
      ],
      [
        "Ġsmall",
        "er"
      ],
      [
        "Ġanaly",
        "z"
      ],
      [
        "Ġanaly",
        "tical"
      ],
      [
        "719",
        "1"
      ],
      [
        "Ġ.",
        "/"
      ],
      [
        "Ġover",
        "fit"
      ],
      [
        "Ġch",
        "ain"
      ],
      [
        "Ġfol",
        "der"
      ],
      [
        "Ġfol",
        "low"
      ],
      [
        "Ġvocab",
        "ulary"
      ],
      [
        "Ġplayful",
        "ness"
      ],
      [
        "Ġarr",
        "ive"
      ],
      [
        "Ġarr",
        "ives"
      ],
      [
        "Ġcomputation",
        "al"
      ],
      [
        "Ġmolecu",
        "le"
      ],
      [
        "Ġmolecu",
        "les"
      ],
      [
        "Ġ\"...\"}",
        ","
      ],
      [
        "yp",
        "e"
      ],
      [
        "áµ",
        "¢"
      ],
      [
        "ĠÏ",
        "ĥ"
      ],
      [
        "Ġord",
        "er"
      ],
      [
        "Ġ================",
        "================"
      ],
      [
        "lev",
        "el"
      ],
      [
        "Ġannual",
        "ly"
      ],
      [
        "Ġph",
        "osph"
      ],
      [
        "Ġinf",
        "lation"
      ],
      [
        "Ġfix",
        "ing"
      ],
      [
        "Ġem",
        "pty"
      ],
      [
        "Ġmer",
        "ges"
      ],
      [
        "ĠAd",
        "ded"
      ],
      [
        "ĠRank",
        "er"
      ],
      [
        "Ġprote",
        "ins"
      ],
      [
        "ĠHe",
        "at"
      ],
      [
        "document",
        "s"
      ],
      [
        "Ġexpect",
        "ations"
      ],
      [
        "Ġgly",
        "col"
      ],
      [
        "Ġsee",
        "ing"
      ],
      [
        "ĠWh",
        "y"
      ],
      [
        "ĠURL",
        "s"
      ],
      [
        "Ġdoes",
        "n"
      ],
      [
        "Ġpri",
        "mary"
      ],
      [
        "Ġcapital",
        "ization"
      ],
      [
        "Ġrefres",
        "h"
      ],
      [
        "Ġmorpholog",
        "ical"
      ],
      [
        "Ġrepresent",
        "ations"
      ],
      [
        "Ġpath",
        "s"
      ],
      [
        "Ġmitochondr",
        "ia"
      ],
      [
        "856",
        "4"
      ],
      [
        "bre",
        "aking"
      ],
      [
        "sistent",
        "ly"
      ],
      [
        "Ġstra",
        "tegist"
      ],
      [
        "ĠDe",
        "ar"
      ],
      [
        "ĠDo",
        "es"
      ],
      [
        "Ġrin",
        "sed"
      ],
      [
        "Ġahe",
        "ad"
      ],
      [
        "Ġtot",
        "al"
      ],
      [
        "Ġtbs",
        "p"
      ],
      [
        "Ġslow",
        "down"
      ],
      [
        "Ġpun",
        "ctuation"
      ],
      [
        "Ġpie",
        "ces"
      ],
      [
        "Ġposs",
        "ible"
      ],
      [
        "Ġincon",
        "sistently"
      ],
      [
        "Ġinclu",
        "des"
      ],
      [
        "Ġinste",
        "ad"
      ],
      [
        "Ġretr",
        "y"
      ],
      [
        "Ġredi",
        "rect"
      ],
      [
        "Ġfet",
        "ch"
      ],
      [
        "Ġflo",
        "at"
      ],
      [
        "Ġfam",
        "ily"
      ],
      [
        "Ġfiel",
        "d"
      ],
      [
        "Ġfru",
        "it"
      ],
      [
        "Ġvide",
        "o"
      ],
      [
        "Ġback",
        "off"
      ],
      [
        "Ġearn",
        "ings"
      ],
      [
        "Ġestima",
        "te"
      ],
      [
        "ĠThan",
        "k"
      ],
      [
        "Ġmul",
        "tilingual"
      ],
      [
        "Ġmidd",
        "le"
      ],
      [
        "Ġmalfor",
        "med"
      ],
      [
        "ĠAmeric",
        "an"
      ],
      [
        "Ġconsum",
        "er"
      ],
      [
        "ĠRespon",
        "se"
      ],
      [
        "Ġalgor",
        "ithms"
      ],
      [
        "Ġoutplay",
        "ed"
      ],
      [
        "ĠFrequent",
        "ly"
      ],
      [
        "ĠInstr",
        "uctions"
      ],
      [
        "ĠInstall",
        "ation"
      ],
      [
        "Ġexponent",
        "ial"
      ],
      [
        "Ġexceed",
        "ed"
      ],
      [
        "Ġglu",
        "cose"
      ],
      [
        "Ġoxid",
        "ative"
      ],
      [
        "ĠMast",
        "ercard"
      ],
      [
        "process",
        "ing"
      ],
      [
        "Ġorganel",
        "le"
      ],
      [
        "ĠWeek",
        "night"
      ],
      [
        "Ġoverfit",
        "ting"
      ],
      [
        "Ġphosph",
        "orylation"
      ],
      [
        "Ġglycol",
        "ysis"
      ]
    ]
  }
}